node {
  name: "x"
  op: "Placeholder"
  attr {
    key: "dtype"
    value {
      type: DT_FLOAT
    }
  }
  attr {
    key: "shape"
    value {
      shape {
        dim {
          size: -1
        }
        dim {
          size: 784
        }
      }
    }
  }
}
node {
  name: "model/dense/MatMul/ReadVariableOp/resource"
  op: "Const"
  attr {
    key: "dtype"
    value {
      type: DT_FLOAT
    }
  }
  attr {
    key: "value"
    value {
      tensor {
        dtype: DT_FLOAT
        tensor_shape {
          dim {
            size: 784
          }
          dim {
            size: 10
          }
        }
        tensor_content: "\032\242\244\275\252\310\037=\300\355\246:\262\272!=\305\006\237=\357(\215=@\374\"<0@b\275,\315\275<\314\3045\275\311H>\275?S+\275s2\203=\262#\010\275\352Qy\275|\035\250\275PU\375\273\232m1\275\235\320\215=\3208\242;\363h\200=\002;\031= F\365;*\276v\275J\216\031\275\310\325\261\274\375\373\225=\325\002\261=\023&\230=V[N\275\000\2346;-\214V\275\205\347\245= \236\367;\351\247\215=\233F3\275\n!o=\013c}\275:\326@=6\331w=\021\305\205=\313\202\031\275\326 g\275\333n\251=@\236\376<\343V|\275RY\n=\216\232\177=\221\036\212\275\342\000,=V\313\034=4\226\235<\340\r\330\273\205\037\233=cL\210\275\324\250\247<\223:\234=\375I\232=\274\344E\275\215,\"\275\333=\224=0fc\274\346\207\250\2753\364\202\275\300\017\265\274\246o\366\274\260M>\274,q\014=\200\205\320:hf@\274\213d\261=hmV<\260\257\367\273\302G-=\226\244o\275;\254\253\275@\301B<\341\037\206\275\000\352;:\262\327#=\304i\204\275\236\342U=\t\177\260=\251\313\004\275BY|\275F8+=,f\375\274\020\241[\274\350\265\220\275\261l\242=3\302\235=\342\\U=@\377\353\273I>\237=\373u\257\275\027\252\244=I\337\227\275\332\277\317\274\356\177~\275\370\212<<\242\251w=\266^*=\016*4\275\336\037*=/P\253=@:@<@U\032=\"\316e=\240\262\327\273l\035\211\275M\364\222=\206\371b=\322E{=\000\341U:\320\372\303\273\320.\230\274[\000v\275\232V!=&\033I=\035\323;\275&\260\250\275\235\265!\275j\207\277\275\020\350\222\2726\333+\274Q2C\274a*\361=h\2136=\247XG\274\266\240\214\275\233\230\307\273@\022\322\274\010Dl\275\252\252\340</\241\261\275&\262\306\275\027z\332=\375;S\274\027@\350\275\266\212\253\275\2666\226\275\211\225\236=\026n\003<\246L\215=\352\027\022\2758gH;s\214{;\'{\275\275E9\371\273\327\033\240;\332?q\275xl>=\024\207\331<T\262\251\275\014\\\235\275\264|\261<rV\230\275\2465p\2757[M\275\330\353\304<\003)\255\275D\225\320\274\036\0309=\3300j<\037I+\275\003m\260\275\023e\226=`\235\036\274\324\035\304<\247@\237=\220\356\243\274H\272\342<\350\241\005\274@\222\346:^A\210\275k\336\'\275\030\353\022\274\340:\016<\231\202\254\275\200N\030\275D\257\331\274L\260\203\274(b7<\255\346\022\275\211\014\217=D\252\330\274\0266H=No,=@\326\213<(\377x\275\354\354\203<9\310L\275\324\032\255<\000w#;\312\302\004=\226v\330\274\273\033\222=0\217\236\273\305\024\232=4\326\231\275!n\235\275Dy`\275@\212\213:\372\014\021\275>\371\261\275\036q0\275\366\377\370\274>\247l\275\253V\033\275\372X[=9\317\252=\026\317\217\275*\202\256\275I\315\255\275\2102G\274\360}$\274p\001\020\274V\252\326\274\310\252\255\2744\247\245\275(\010\324<\2604v\2750\236\200\274\217\357L\275no\022\275\350b\232\275\312Qp=\005\000\201\275_\020B\275|\213\274\274\r\212B\275\"m\246\275\276^\342\274\270G\216\275@\245\374\272\202`\014=\000\'\210\271@v\356<4\245j\275*\370y\2754:u\2758\326\013=\344\243\013\275\312\244~=\030\203\014\274\261\250\252\275Z:&=\234\275\330\274}\336\211\275\270m\241\274CI\250=\177E\204\275\355\300W\275`K\020;\022\206[=\302\013R=\342\330s=\366\373\024=b`\n\275\200\353\':\340+\257\274P\372n\275`\362l<!\230\246\275\3040\362<p\333\241;`\264\264<\210\262u\274\002\2553=\020\324\370\274\200Mv;\313\353\257=r%\037\275@\344\314\272\320\327Y\274\357\032\236=\276\320\365\274vVb\275\246\320\245\275L\222\237<TM\247<rFl\275\360\361\033\274\360?r\274\215\026f\275\245FX\275\266\201\372\274\247\013\222=n02=Nx\023=\304\263\215\275\306\303\217\275:\357\020=,\007\204<\240\326h<jIS\275\316e\210\275\306\3018=\304\"\213\275\300\334\203<\311$X\275\255\274,\275\272\332F=\236\364==F3I\275\330*#\274\260\003\252\273\010\250\n\274\232\3236=A\301\210=\004\247\341<p\333\332<\277/)\275pn\310\273R&p=8}\247\275\264\020\230\275\237Pf\275\341X\234\275\226\232^=\2538n\274\022\352\203=28\222<6y\216\275iO\236<?\036\206=EES\275\364\377\026\274\331I\356\274\007\024v\275\377\372\021=\3462\235\275\231y\317;\037\345t\275+Fd<Y\273:\275\310V\366=\221\036\325\274\276A\323\273WI\"\275\337e\017=\350H\344<\371\221\352\2740\366p<\004_\200\276\025\326\204\275P\034L>\315\007\274\274\317\252\277\275\232\340\220\275\3174\224<s\237G\274\010\327\302\275\252\001==\267\366\220\276\265Zf\275\244|v>\341\362x\275\r[\271\275\037j\306\275:H\237\275U\350d\273x\266k\275\005\342\273\274p\274\370\275[\306\204\275\257\317h>\335\244P\273\341\207\307<>f\000\276\270\013s\275yp4\276\037w?\275\276)\244\275\256\t\222\276\350\034\335<\305\320X>A\316\017\276\236\207\221<z\027J\274e_\321\275\205\337\204\275\345\240\000\276\204EP\274E\001X\276.\237Z\274\227|\032>\237\037\307\275,w\262\275\262\256\345\274\317(M=\332B\255\273 O\024\276\334\210\275\274\263\320\276\276(\266\236\275\327eL>\017\227B\276\320\026M\275\254\221L\276\304\367\341\274\\\t\301\275F\001`\276\306\222\226<\247\273\271\276S\253\006\276\033(w>\205\301\351\275&\344/\276\274\271C\276Y\001+=\367w\000\276\352\367X\276!\013\007\276\377\262\313\276\3344/\276\351\361L>\347\0216\276\013\326\374\275\352\345\271\275\245\013\347\275\020H\250=\032\321\202\275\362\273\033\276te\253\275hB\210\275\232\356\352=\253\251\017=e\336\366\274\224\326\177\275\n\362R;\316\306\306=\253\204>=\003q:\276\361\347\177\276<4\010\275\244\255K=\262\001\016\276\223\3325\276\3476\216\275H\243\201=fB\304\275\310{F>2\337`\275\215s\313\2762|U\275\017\252\301\273o\344\333\274@\031\256\275\266w\301\2758\205\245\274g\270\037\276\275\256\272=\353\356\377\275\364\350\311\276\206\206z\275h\3140>\214\213\007\276\202\177\274\275E%s\276Q\013\275\275\004\246\254:\035c\326\275pB\356\275\312*\205\276\363I\n\276\225\313u>\207\\\r<)j\371\275\273+\004\276\346\317v\275!\033\243:Ff;\276\336e\026=k\3748\276\355u\342\275\035\343!>\321\267\277\273C\276\257\275\266p\010\276t\231\332\275\030\377U=\220\367,\276\366h+<0g\201\276\257\n\306\275\333M\013>PD\311\275\276PA\275\244\212\327\275s\215\324\275\217\253\036\274\021\031\365\275<\276\353\274P\251\301\275XA~;\357+]>\352\222\226\275\267\376\377\275wr-\276\030\371\251\275g\353\275\275\207\331[<\254\243\230\275=kR\276\257\257\r\276\217\226\275=\036<\322;Xo\257\275\254\177\033<Hg\200\275\303\216B\275\203U\014\276\353\362W=\263.\326\275\233?\036=\2345;>\250\316\251\275\205\316 \275\320\370\340\275\273\335%\275\222\255u=\320\255\221\274\000\210\206\272\342\266\000=\226@\024\275`\222:;\361\212\236=\205j\215\275\323\355W\275\204_\030=\020A\321\273\200\211\031;(\252+\275Hyp\275\311\001\227=6\202p=T\214\250\275L\313\020=\000t\202\274\302,\005\275$\212\221\275b\361}=\210\324\022=f\270I=\324<\215<h\353k<\355\276\215\275\366\n-=H\036\341\274\2102\233\274\330\211\241<K\034\254\275q\004\261\275\300\t\200\272:b\020=\016\233K=b\314w=\316<\217\275\2407\306<\270\243\020<\030\022\330<8x\263<a-\232=\200\3669\275\242}\251\2756\253v=z\3373=\272\345/=\200\235\367<\022e\'=\343-\201\275\376%\016\275^\226t=\361\001\236\275\004TY\275<\347\255\275\032+\177=\014q\027\275\303v\211\275\2041\232\275\007G\202\275\0139u\275\237\006\316<\222\270&=\305\272\375\274\266w\364\272Cy\210=h\033^<\216\"\267\2749]&\275W\262\271\273m\236\276<\260\2403\275?8\026\275\r\003\254\274\365\356\243=\351\210\235\275%\203\203=\2202\257<\214\273\005\275\370\000\232\274\234-Y\275\316\364\200\275\200+\317\275\250FL=\026S\031<\2723/\275N\367\300\275\315D\024\275\261\2377\275/\327~=u\376\361\275}8x\275D\336 \276\345{\272\273\022,\006>aen<E\353\247;\023&R\275m\353.\276\033\364\2329\020\252\357\275\273#s\274\345\265\365\275\371h\243\275\277S\355=\201\004\223\275H_\273\275an!\275\245\347\347\273Y\317\037\276\002\311\326\275\336\246\251\2755\313\271\276\314\301\273;n\303\216>\373tt\275\370\"0\275]\356\245\275LD\352\275\227\256$\276\223\375q\275\345\372i\276=\364\254\276\010\"\022\276k\362\220>\2271\027\276\317\355s\275#\275v\275G\037E\276\341_9\276\003Ry\275\373NL\276\211\235\264\276\002\000\274\275!\373C>vUT\276i:S\276H\345\306\275\212cs\276\216Se\276P\027\r=\244\273z\275*\030\013\277\262\017\206\276\020\014s>~\367h\276,\231\037\276\304\260F\276\240\233\002\276b|i\276\351D\215<o\342m\272\345\226\020\277\366h\217\276Txn>\226[\240\276\021\236\234\276\227\021\222\276\324\200K\276\316\231\260;\247e\004\275o\300\257\275\247\266\021\277\320g\247\276\001\023W>\007\355X\276:\326\270\276\337\246M\276p\315\224\276\327\260\374=\031\225M\273X\260\210\275\007\204\333\276\t\260\364\276\207n8>\310\301j\276\364T\331\276\352\002\230\276\201pt\276\206[,=#\342>\274d-\340\275\256\277\206\276\003\220\017\277\327\2758>\322\0168\276K\315\224\276\334c\246\276\235\000\254\276\257#\204>k1\246=Q\007\023\2766\355\262\276\354X\236\276\307\266i>w)}\276\'\235\325\276}~\231\276+\272\257\276\270\336\362=\375\225\371=WX(\275`\"\257\276\350^\260\275\251&3>\323\346\\\276$\007\315\276\257R\230\276\332s\247\276\244\257\250\275\031oB\275\355\010+\276\317\302\255\276\355XX\275n\006\006>7\016_\275\223\317T\276\341B\220\276\221\262a\276\025\200\372\275\342\322\232\275D&\206\275\372\253\300\276U\265W\275\027\327C>\241\023!\276a\340F\276{\305\016\276n\273&\276\344\346\337\275\257!\201\276\2155\311\275\031\274\204\276\035\237\330:\256\354 >\335>\035\276\265\316\211\276\033\265}\276H\336g\276 Z+\276\270\024n\276.$T\276\030\264\215\276f~\210\275~$y>\311\352\r\275\325q<\276\016h\241\275\374`\220\276\014\222\366\275\202F^\276H\210\\\276\221\016i\276\004\013\326\275\374\306\007>\027\261\366\275\204\342\322\2754.\200\2752\300\235\275!9\035\276\r\270O\276\357\355\027\276\225\335\216\276=\2738\276K\233#>\257)\354\275\037\351\213\275\214vm\275\356\354\375\274z\r;\276R\351\350\275\356$\247\275\316]\230\276y\3246\276\023Dj>$nR=\361\2620\276\373\307A\275s\030N\275\033\272\367\275\240\007\261=4\353\000=\3277\030\276\276\276>\276\315KK;\313L\340<$(A\275h)I\275\257\210|\275\317;g\275\215\326%=\303\001\203=\032u\352\2756(,\276\216C&\275b\273\216\275\035J\220\275\335\222\320\274\362\353K\275\024@p\275\346 \261\275\014\246\345<lj\250<>]8=\244\334\222\2744\222\261<\203\373\235=n\026\024=\214>\003=\312\275g=.,\177=\371\013\204=\256lK=\270\231a\2748\251c\274\352zr=AM\222=\340\021\247<u\226\260=;\034\242\275\254\240\217<\230\205\001=\3444\227\274`\266\036\273\003\236\257\275@5N;\211Z\260=$\n\027=\245\271\241=\274\303\240\274\313\266\250=\3405\341<\370\320\211<j\375\204\275^\311L=\250@\023\274\224\245\261<`r\347\274\272M;=\035\361\373<O\030\357\274\213\302\007\275Gn\363\2746\277`=~\270\032\275\262\371\221=LHa=\243\357<=\016\267\266=9\225\210<\310\031\262;\341\343f\275\306\177e\276\342c\304\274\305_7>\324\277i\275>\354\341\275\346\255\024\276\274\334\325\274\0221p<\344\3252\276\336\3463\276\226\3777\276\231\001y\274\3358\253=\363\022\354\275\336\316\363\275QE)\276!\234\\\276T0(\273\177X\200\274.S =\367Fb\276\275\365\314\275\353g\016=\003\001n\2757\250L\276\223\255\333\275\343n:\276jL\037\276$\220%\274\207\317\367=\332M\212\276h\311\365\275\030\001H>\004\201\354\275p\242\357\275\245\272\344\275jkC\276\264\030s\2766\202\321=\352.\256=\352\016\200\276t*T\276\343\'p>\367$i\276\242\234l\276\005\261*\276 \314\001\275c\275\205\276\004\362\342=*\207A=\270_\216\276\305\364+\276\222\245\'>\244jV\276c\316G\276\350x\006\276\251\215\201\276\310\251^\276\3163Q>\"+\274=\307o\333\276\244\206(\276\220\3619>\234u\272\276:Mg\276\373a\010\276o\345\246\275\n\311v\276\205\315!>\247\367\242<i#\362\2767\212\305\275\211\204\330=\251G\257\276\364\032\226\276+\373\206\276\323\3636\276V\024\230\276\203\336Z>1\304\336=\312k\025\277\344\371`\276\3764B>ml\347\276d\264\202\276=\370\262\276\205V\233\275\205\377\233\276\255\320\023>\227\017 >;\373\036\277\257\r\220\275p<h=N\265\242\276\311\320\203\276\372\017b\276i\340C\275\001\340\305\2759\375\204>-W\">\254\031\037\277\026\254\021\276lS\346=:J~\276\305\037\201\276\361\231\257\276_\232:\276\030$\001\276\320\366\032>\t%\212>&\353\315\276b\273\350\275\227\223\033>F\243\200\276&\257\233\276,[\260\276!\364\321\275\301\271&\275\025}\013>\305+\373= %\003\277\314\177\026;\271!/>S\216\232\276\214+.\276r\366\253\276\342\273e\275\237}\204\275\036tI=U\3056>0\335\240\276>`\377<\341#\016>\2719\n\276]g\220\276\256\353\275\276\226\211J\276\340vI\276\316\3521=\345\261\016>B\332\265\276D0\003;\344\241\327=:0\003\276;\364\207\276z\266\272\276c\001n\276\265\321\227\276\250_\002\276\014d.>\363_\237\276\024\007\033>q\332y>K7\265\2759\310E\276\222\242/\276\206\231\235\276\307\212\177\276\260\350.\276/;\375<\014\322~\2755\242\212<\276d;>\251\242\306\275)\347\211\276x\235\207\276\370]J\276\036\271w\276G r\276B\355f\273\374{\305\273\330\004\224=o\240\207>>\343B\276\202\222<\276B(\211\276\331\032\254\276\224e\201\276\275\362x\276.\232\312\275V\n\001=\373C\006>\372\314K>\322D\004\276adI\276\377SE\276C\336[\276^\220\217\276\034\\X\276\\l\252\276\331\254\216\275\232\320\250=\256\034x>\370\337\263\275\224\r\313\275l\246\201\276\346\'_\276\306j\244\276Tt\221\276x\276l\276\006\004\006=\341`\n\275\312\352t>\367\327J\275\305\223\302\274;c\355\275\353\262%\276\213\351q\276=\245\013\276\263\003\032\276\267\361\033\276\252\203+\275\0352[>0\013\r=Gj}=\353\241 \276f\315\336\2759,\345\275\233\331L;\311\267\013\274\r%\377\275\360\225\003\274}\002S\275I\3343=\330\021\035\275\315\235\226<\000b\017\276\234\\\317\274>\034\022\276\262?0=\316\241\032\276\225\307\330=\270\r\321=VA\304:\010y\251\274,\305f\275\310\370\252<\2736\260=\010K\240<\t5\240=\266\225b=\304>\354<\277\276\232=\201i\255\275\2057\244=pt\245\274\220\245\363;:\006\035=\006\365\005=VK\330\274\204\373\342\2743:\033\275\314\177\213\274\252\224\373\274\240\200\177\273\000\007\300\271J\006\034;\265\370\362\274\222\210\n<\227&\030=Y\nP;W\230\033\275>\241\321<t/e=^\317{< +3=\331\236\314\274#3\032=m\320\221\275\267%-\275\360 \207=\307[\005\276\367\207\354<:D\236\275}\030\263;\037x\215:\335C\037<\343\217p\274n[\325\274\206\257I=\372\334I\276\313f\324\275+\3541\275\312\304\312\273\020\331\036\276\307\235\001\276T\210Z\275*\343\001>U\226\007\276\275\245\231=|\007\201=\320\010=\276\267\230\243=Q\026\022\276\320\321=\276\242:\300\275ri\203\276\337Zm<,;\273\273Y\342\215>\005\224\355\274(\030\245\276k\023a=J\377\203\276\3403\213\276\317v\002\276\252\323D\276FH\277\275?\237S=\205\371Z>\027N\372\275Q\242%\276\206\026\353\274\205\257\256\276\365\031\241\276.\t\026\276\314\256\337\275\2028\267\275\255\226>=V\202\017>s\035\262\275\365:o\276\243\271\316<\207\332\304\276\000\006E\276\305A-\276\0253\002\2761u+\276\360\266\r>J\2610>\233\017\005\276\031\237\250\276\271\314\321\273\202\211\341\276\2039\262\275\r@\224\276f*\006\276\334\233\r\276?\351\034>\241\314\013>\324\320~\276\204\204b\276\204\305p=\327\320\250\276N\304\267\275\232\t\217\276\263\266-\275\203d\314\274g\362\360=\363\0326>6\277\244\276\241,)\2762\t\375\273\244Z\306\276y\242\032\276%\003T\276\n1\335\274\034\340\007\275M\247m>\314\234F>\2459\253\276\351\312\032\276b\002\325\275\t\243\325\276\257\375\300<-*\230\276Y4)\276H\373\275=\370\243\006>uCE>\371\251\240\276\242+\005\276\240\366\275\275\270\021\253\276\327\314\372<\225\331\206\2762\312\321;\320I7=\004\361\006>\377\006\\>8\205E\276\002\217\311\275Y\001)=~\017\223\276\210U\263:#\201j\276\251M\211\275b\302\226=\227\0016>\277[\272=0\\_\276\376\252#\276\372\275\252\275\372B\225\276\276[\n>\025T\242\276\237S\335\274\2522\315=\312\372\240=\260\272\270=\322\366e\276\335\210i=\235\364\267\273A\335\242\276f\236{=\353\227\233\276k\237-\275\036/\r\275\3521\177=\332\307\025>\264\363,\276\352a\023<o)\351=\257\263\221\276j\203\2339\002C\313\2767U\030\275\260\022\310\274\343\331\247=\256h7<\010\241\323\275\331|\200=\360\310\376=\346\320o\276=:\010=K\257\317\276\2341\313\275j\352\260\274\345\037H\275\272\301\207\274.lA\276\2564\023=\316\346r>\301\307F\276?\322\245\2753\202\206\276\037\333\034\275\202i\t;{<\312\274\242O\215=]\n\177<\250\033b=\217\207b>\244Ui\276\264\206\022\275\357e\277\276\016\215!\276V\250\036>\343\356\314\275b\0263\276IXj=\324\202A\275\255-y>\237\372\213\276Q_S<\242\266\177\276\360\020v\275\220\230\203=\243-W\276\315\300s\276\327\220\217=w\351\375=(/z>\026~\\\276\361\0239\275Py\313\276`\307R\275~\217\253=W3\265\276\310jX\276p\275\004>\367c\313<:t\244>\020\363\224\276z\336G\276\220\r\257\276\032\224\341\275\327\213=\275m\227\257\276\300X\336\276\253\2001>[\365\331=\317c\217><\363a\276\310\237t\276\200\274\222\276\277\253\223\276_\342t\276\364\353\246\276\220\265\271\276\305\004\245=\264\363\033>\3740K=\220~K\276\270\"V\275\226!3\276\257\362\022\276qh\335\276\335\237\342\2720\026\\\276\004}f\274\020T\003>\\{\207<\232\340\272\275\346\202\313=L\375\003\276}\276\034\276\245\360B\276\215\326V\276\250e\323\275\327aL\275e&\276;\345\350\230\275v0\013\276\201!\371<D\ra\2751\274\360;\315p\243\275\357\216\320\275\006\350\305\275\244\2640\276+\276\307\275\205\276]<\204\366%\275!<\264<\333\036\360\275\0051\246=XD\206\274\305\235\255\275\217\346\247=\354\273\314<\023\216\247\275Z\254/\275\3008\225:pg\202<\241\254\231=!\213\244=P\311N\274\320\017k<\000Zn\274\260\262\024<G\302\232=\244\267\264\274\325\234\235=\217ve\275/Z\236\275\277\005(\276\t\273L=\241,\340;\\\005\220;d\354\r\276Fi7\276u\351\315\273^X}\275\254\261-\275\263\221k=\326\206\032\276\323\325\'>\036\n0\274\344V\036>\330\026\005\275CU\350\275\023\000+\276\021\364\004\275\022\256\017\276au\023\276\375\017H\276\210\272\016>\375\031V=,\343\">\r\336\253=\304\320\336\276+\201V\274\273ZM\275s\372\240\276\n~\033\276\337\340\214\276\351\001\220=J\342\210<g\3719>\225B\277<\234K\237\276Ade\276ZV\022\275\0347\241\276\035\nc\276\352.\\\275\223T\222<}*\341=t\315\234>JG\212=b2C\276t\316Y\275\230Z\252<\341\362\326\2750\230\317\276&\313\022\276\351\262%\276_\207\352=\027Qn>\207g\214\275v\177\036\276\373\036\260\272\315ND\275L\242\345\275\307R\252\276\202T\247\275\316\375R\276\317e\370=\231\227\266=@\2111\2752!%\276\266\222_\275k\353=;\322\345\022\276\250/_\276\034\370+\276Nm\225\276\366^.>\014\322\013>A\346r<\211\263)\273\256\353\004\275\r\337\220\275\007\335\234\275\374/[\276\345\265\250\275\202i\024\276\231\255R>\265\277\002>#\345\031\276\365w\241<\031x\014\275D\315\266\2751CX\274Ay\350\275\205\325\231;\006M$\276\\vR>\336\332#=\361\327\032\276^\370\365;P\034*\276\324\255$\276\243A\270\274]\'\221\275/\001~\274\225\327\215\274\366tW>\374\321\002>\320h\000\276\230C\207\275G#\026\276\250\210\206\276\237\361\215=\310\237\267\27597\276=f1Y=\315\216a>0\331\225=N\260z\276(\216R\274B\200\261\275\322\226,\276\303?x=\325\310o\275Zv\234=\335t\206\275\343\331\373=H\325\3529\253\014\020\276\363\277\007\276\210\207\032\276\026\223\232\276R\202N>!\nf\276\366\245)>]\333\226<\006U\036>\360c\330=Dh\236\275,2m\274\374e\001\274m\024\225\276 v\275=f\261-\276[\005v=\023O1\275\0349W>\r\327\'=\256H\027\274\355\351\"= :\362\274\267\335\177\276i\356p=\"&\243\276\307[\332=_D\003\276\351\274H>\264\340\222\274\227\023\224=\340\324\"=\332\237\367<.E\260\276r\343@>!\020\234\276\355\332\261=\220\004\324<\311\325\340=\243VD<\350\331\254<2\275\010>\350\224\243=rK\244\276\267B\021=\272\222\231\276\375r\277=\371{,=9\333M=\226\037V\275\315\322\342=V\224\234=\020.9>1\020\205\276d\256\250<R\017\211\276\\!\316\273\355\"\214=\263Q\305\275\342\205\037\275\001\312\032=\220\016\014>S\262D>8n\337\276m)\347=\266/\203\276i\333\340<\346{\020>\022\354\254\275\232\333\r\276\307\372\216=Z6\016=\026\201\341=$#\246\276\217\262Y\275W$\300\276\221\351\361\275\347/\034>L)(\276\n\220\247\276S\017c>\367\364\037>7\244/>\034m\222\276%\262s\275\332\302\270\276\332\315o\276\254\344\\=\364\370\236\276/\223\273\276\n\266\206>g\203\">\300v\">\027\260\321\276\000\263<\276#\253\306\276t\354\202\276xd\272<:<\230\276; \260\276\334{\273=\301;\221>N\303\203=\326do\276\270\232\035\276\321\202\222\276q\321\316\276\224|\235\2769\020,\276&tk\276DH/\275\325\020\240>\363\0313=\247d]\276\274\264\322<R\374q\276\024\351\273\276%,\"\276Z\377\374\275\350\222K\276\310\010J\276_\204B>s\326-\275\354^\350\275\233\272\200\274{\271<\276\216U1\276\316\3375\276\263Q\002\276\361\255z\275\237l\n\276\242G\366=\006x\022>_\354\244\275k(\244\275sy\026\276\240\230\027;\340;\234\274\364i\360<x1z\274\224>\207\274\362\221[\275\014\023\321<\244\261\221\275\272bi=\340\302+\273.e\254\275\347\254\210<\322\006\205\275\217k\016>y\255%\275\234\022]\274\352A@=0Q\247\274\361\367\376\274\226\212\217\275\277\261\243\275\321\347\017\276.1\333\275\024\300\235=\261\257\245\275\344\220V\275\311cJ\275\360\3628>r\211\037\276\013\267\032\276\177\362p\275\203\230\025=>Z\240\275\271\021]>\337\301(\276\274\016\262\2765\266\220\276\314\277+>\353\'1\2766\257\032\276\316\212D\276\364\204\300\273\2553\267<9\020\022>ZB\255=\352\214\233\276\322\300\376\2756[\234=0\310O\276qj\251\276\363C*\276,G\306\274C\231\345<m\3009>\323\273\321=\320xB\276\310\337\273\275\raH>\001p\002\276\216\276\022\277pZ#\276&\010\273\275\031\327\r>\"\346F>\204^\340=\2442!\276q\3266\276E~\302=<}(\276M\223\263\276{\345M\274d\377\021\276\331\370X=Q\231n<\3054\265=\345/\212\2741F\246\275#\026\010>\313\267\367\275\275\022\247\276\354\272\004\2761\372\224\276DZ\"=\033(4>\236\0300\275\347Rk\274\345u\022\275V\004#>!F\"<\203\320K\276}B\355\275\317Jx\276\313C\362<\024X\214=\274m\217\275%\265~\275p\334\351\275*[\201=i\nj\275lx*\276\205\3343\275\003\215O\276\020)\366=X\354\014>\357\344\024\275\234\373\321<9u\237\275Y\203\326=\002\246\007;\210\255\t\276\262Q\232\2744\204e\275\362&M\274\267\355\023<\342\021\207\276_\241p\274,C)\276\353J\303=\014.`\275\257\341A=\325\037z\274r\354.\275\351\376*=g\325\234=\271\312o\276`\220\313\273gT\"\276\334YB\275%\246\021>\031]\252:\375\273\376=\303\034)\275p\352]=\244K->\317\333\227\2761o\321<\216=\324\275\304\263\032\276G@\377\273\322\266*>\244+\257=\302\200\252\275\030\212\310=\341\365\017>\225\265\212\276k\307,=\315\257\031\276\271\316\360\275K\242><v[Z>pi\013>D\243\016\276l\n\371=\345zV=l\376n\276\324\203\327\274\300\231\275\275\223\033\345\275\230\"G>\254\023/>\256d\032>L\344\207\276\327\272\020>\214\006\'>\265\177\254\276\033c\315<\354\253\003\276\334k\307\275Y\017(>\307\004\025>;x\341=:T>\276\005\240Y<\261\177\301=*\353.\2765\312L\275\214\301\377\275\306\323\225\275\263\r@==\223\332=q\0207>\311\340\206\275/\314\254<\271=\255=\'c\037\276\252\201\363=\355\3323\274\341\001\016\276\304bi=\246\243\033=Ju\340=Q\000\333<\266\364X\275\004\355\205\274#\361g\274\217\000\376=\256|\350\275\001e\024\276\\\"+=\031\207+<\007b\244=\033\277\365=\356A\315\274\033\311\243\275\323\203\210\275\331\220}=\235Y\016\275\204\2727\276\207$\231<;7`\275\037\022\310=\333\250\271=\005\034\206\275\326\343\376\275\036\237Q=\306d\212=\350\244\032=\027!\307\275\314\034\211<\347`r\276\323\327\233=\217\344\207;\033\215\014\276\276\004[\276NS\014>\355\252#>\t\221\245\272\331\3037\276\004\201c\275B\210\306\276\nH\270\275\\5\'\2753=\234\276*\216\212\276\350&]>\214gW>3\233I\275\321\331\255\276\245.\217=\350\t\314\276HU\312\276\024\251\302\275h\276\367\276\r\003\271\276\222\266G>aW\331>\365\245K=\035\257\313\276\377\350\207\274\342/\305\276\200\363\"\277R\000\323\276\257\300\240\2763P\216\276\350\2040\273\250M\230>\321\257<\273\023a\255\276\n\215\264=\256{\210\276\'@\323\276R\334\231\276\373\036\036\276\303$L\276=\221\241<\304\366\230>m\346\000\274\327&~\276\244K\340\274\236N\236\276(5H\276Z\261\213\275\234\266\202\275\242\252\271\274@\324\364\275n\260\227<*\260\332;t`4;\316\235g\2740H\370\274\305\235\203=\251!\001=\255\317j=\220\310\023=|M\316<\240\323\003\275481=\221\222\257=<\250\322\274X\277\227=!\231\020\276Y\271\303\274\026\315[\275\255\252\250=\260\025\246\275\217\321\200\275\020\227\302\275\300\325\200\2721\231\265\275ZQ6\276\243\302E\275\356\303\260\275\253(\006>,L\200\275\237-d\276\032\n2\276KJ\377\274iEf>W\007E\276\242\320\031\276\255u\014\276SL\304\274\177g\377=\237\031\370=<\262\217\275\005\325\257\276@\377,\276\265\256\022>\337\354N\276\325,^\276Vq\226\276X\253I\275\\\003x>\006\205l>\303\241\035;]\321\365\276\327/\334\275\021\305\313=\237b\031\276\"\337\357\276\263\275\022\276\025\311\177\276\325\335\201=C\343~>\307r\266=\364\275\220\276\261c\007\276\263\345\374=\231\277;\276)\223\301\276\263\270\225\275\017\306b\276U\216E>\260\223N>\363\271x\274\347\200\361\275\366\243/\276I9@>S\356\321;\270\013\200\276\346c\006\276\0220\214\276.\322\214<\217w(=o\216N\274\346\360\251\273\255\257\005\275\345\324\212>\2748\\\274\365\245\230\276\336\267\256\275\223\345\246\276\0066\031>J\205\235=\245PD\275\355\345\246=K\364@\275N\"\031>Gm\014;Z86\276\336\013\222\275\373\'\243\276\260?Z=$\317\302=1\'4\275\263\330\250=\370\025\016\275T\036\211>\3625\3519\226\t\307\275\372\250h\274\024\000\201\276\022\002\321<\355\035\017>\024\021\024\276\3178+>G\025_\2765\003\037>\235\320\224<\235\357M\274\334\3403=\365+\007\276\320\324\344=\030\220\"\274\227\317\037\276y\342\263=:M\254\275\202\032x>q\322\211\275\333\246\307\274\343\225)\275\177\3503\276:\3716=\3510\020>D\347\265\276,]*=\t\311=\276K\023N>\003\353\266<FU\007>\020\272`=\211\326\032\276\210s\235=^\364N=\r\346\213\276\242f%\275\202\326\304\275\322n\344<q\245\241\275\013>g>\375/\276<\224\304\"\276\205\232p<\266\"\272=sz\314\276\227\336\276<\243\255Q\276M\252\'\275\220\267\200\275\237\017\265>\311}\236=\246\005\315\275\213\257\226\274\237z\">\272a\364\276\251C\320\275\326Z\201\275=\313C=\345P\207=\367\226\325>\227+(>;\316v\276\224\334_<\377\206\216=\366p\257\276,`^;\202pK\276G\263\254<D\242\"\275\305y\266>\251\024\224>\232\001I\276\326\340\351\275\320NZ=\240\222}\276(\222\210=\377\272v\276\251%\036>\250\317U<\233.`>\3469\345=\235`\010\276\326\225\321\274\2666\204=\205;\024\276\306M\301=\337j\234\276S\200\032>t\376\006<?W\003>\021\364\277=7\376(\275\267\3038\275\366\212R=\305d\030\276\033\220\001>\345\246D\276\3746\202=\226f\031=\323j&=1\223\305=\262\233t<\177$\330<\221\243\376=a\370R\275\230L&>\033\376Z\276v\361\361=\330@\362=&}\005\274\340g\336=LL\264<\024\350R\275\222\265\010\275\327\006\006=)]\370=Z\274\345\275 \255\311;T\262\003>\273\235\017\275\221\315r<\033}T\275\377:\212\275\317\370\346\275\317\256\271=\336S\332=T\322T\276\027\202\205\275\330~\213<\260\302\203\276\031\235\252<\216\264%\276(Y\241\276$\254\265\276f\324A>\277\207v>\274JO\276\2349\000\276\014N\357=P\255\334\276\010\367}\276k\330\337\276A\202\363\276\233\263\321\276\234m\232<9t\323>\r\366\333\275\006%\215\2765/\217<\240\014\360\276\206@\351\276~\236\014\277\3738\242\276j\000\322\276+\004\226\275/\005\320>~L&\276\236x\243\276\307H\312\275\356\230\260\276\307S\240\276%k(\276\177\200\303\275\nQ5\276 \207\202=4\265s>\372\016R\275\232\305_\276S\035\325\274\257\377\234\276<M\365\275\034\310\t\276\323\3713\275U\340\377\275\235\242\274\275PR0>\210\255\275=R\023#\275\363\202\013\275\325~\002\276\006\210a<=\272\322\275. {\275\261\355\035=\336\333\t\276&\271j\275*\365\204\274\357\031\017\275\240Z\205\275\201Q\243\275\306f\236\275-\325\235\275\037\230\365\274g\244\353\275\347\207\000\276\271\031\340\275\271H\277;\3204\033>\356\025*\276\234bM\276\217\346\017\274\333\365n\274\334\207\274<e\355\005\275\263\305\331<\205\360\010\276\324Z\013\276}Ol>j\364\200\276\235\226\267\276&\030\335\273\365J\352\274\005\256\"<\372\262\223=>\336%\276\303U\361\276\3462\222\276\272H\205>\367\274\300\274Q\221\255\276\307~\246\276:\321\033\274\245\374\032>7Qd>\207\037\240=\373N\t\277\375\3716\275\025\366\n>\343\274\272;9T\267\276fF\346\275|J\027\276\272\2146>\237h\033>JL\317<\221\346d\276Z\366_\276x^\316=&Q%=\246?\203\276|\275\013\276n\325\201\276p\177\210=\277\002\023>\3229\210\275\n\n0\276@\256$\276\305\263A>\314\002\353=\250&r\276,[j\275\213\212\374\275\014\353\006>\3202\303=b\204\315\274\021r\321\275B\274\271\275\177\310\203>H\364\321<\273\212i\276{\342\355\275\016\320z\276\r\210\233=0\203\261;K\315\365\274\007\227\276=u\010%\276q\2328>J\221\000>UR\252\275\220\227\"\275\"\276\236\276\242\033\224\274\360\311\306;\007\324o\275\245\202\205=}\2122\276\247\240\026>hD7=\271a\255\275\200\222\217\275\372\031s\276\367O@>\030\267\213\274r\341\307\275\022Z\210=\214\024E\275\312KH>Zf\227=\331\214\201\275\246\300\001=\300F\026\276v\242\025>\345\256\222\275\361\214~\276\332\004\270=\342\313^\275\211a\363=\252\332#\274\372\330\272\275\342z\300<\217|a\275ZW*\275\277\177\025<\357\322j\276\332\307\020=\366\345(\276L\003\'>\206D7=\247\226i\275-\263>\274\314q <C\210\240=v#\212<8\377\224\276\024\224\245\275.K\344\275\001\210\010>R+\367\274\004\303\324=\374\036\377=\305\342o==\212\272=\342e\204={\312\270\276\353\212n\275\277\356\375\275\211\003\262=\216eq\275\016N5>\016\024\376=t\316\240=*\275Q=w\036L>\223r\237\2767\220%\276\352\3015\276>\364n>\365\023\320\275=\025T>\223G<>\333%4=\031MX=\316\261\021>\327=\235\276\347.F\276\315d\206\2765zJ>/\364S\275U2\307=V\302!>\335\254V=\235P\376;\'\343\214<\237\202W\276,UN\275\025V\201\276\211\244Y>\236\370\221\275\025\016\371<\336U\222>,\200\330\273b\n\334\274=\243\254=\235\233\327\275u\'|\275}\376\312\276\025{P>\302\207[=\010\223\317;h\005\352=\261\315\217\275\277\214\275=\334\314\336=\037E\260\275\315\351\214\274\330\342\204\276\244\345\217=h\013\300=4\264\234\275\324\214s=b\301\035\275\375\313w\275(\367k=\036\314\200\275\255d\001>\203\277\206\276r\303\245=\365\006\217=\323O\242\275\216l\214=rfq\276O\177\206=\251\351\314<[\006a=\020\272i>\005[\202\276\270p;<\235\203\006>\251\024\361\273\207e\373=\010c<\276\035:-\275\2509\r=\232\243\231\275\326\263F>wAS\276w\244\236\275j\215\025>[\344$\276\2176\323=\320\210\341\276\222\271 \2767m\236\276A\375g<\360\272\322>\320\231\304\276\3521\353\275\253W\204=\235\013\264\276\274\254\236\275\377x\350\276\364\320\375\276\240\313\036\277?U\004\276\t\t\342>\213\263\344\276\357\023\221\276\036\220\346=kw\262\276Jh*\277\254\247\367\276\010\267\370\276\ng\365\276\333 \014\276mF\005?>\213\366\276\245\221\317\276\020Z\372\275\364\302\364\276\321\346\326\276\252hK\276\276\243\216\276w\264S\276\332\317\036\276\020\225\263>%\265\200\276\347\t\205\276\230g\314=\250)\251\276\206\025\323\275\005:\\\275\224g\330\275\250\204\242\275\215\273H\276\362\275(>uM1\276\260\216\304\275\213\253\257=\222\343\250\274q:f\275\324\tX\2728\221\245\275[\362\357\274\313\271\350\275\325>X<\305\311?\275c?\000\275\305\316\013=\314\342\320\275\003\350\250\274\377C\247\275\300g\234\275\276\373\301\275\336\263\361\275V\356?\275\270\272\216\275\257o\007>\354\n\035\276j\2038\276\324i\202\275\026\027\367\275\031\221\332\274{\337\325<v\214\326\275\347P\t\276\254\275i\275\343\323x>\364\000u\276\371\342}\2761\210\237\275\356\335\336\274\224!\223=\3501\251=|\335V\276\016\002\316\276\363XI\276x:\224>%\366\252\275\327n\266\276}\305\264\275\227\333\345\275\310\244#>2\352\225>\230s\270\275q\222\254\276\'H\242\275\376U\013>\221\202\270\275g\324\276\276P\251\276\275\003\311\'\276z\2201>\377\001\350=p2\030\276\366\313\207\276\234\0073\276\276\273\010>KO\332\274\215\343\035\276\242\366\010\276\355\032G\276\005h\253<\207\205\350=\344\207\354\275\266\\\367\275\370\276^\276\014\261\322=\013=\013>\t/\206\272r\307&\276\024u\001\276\353\333[\275x\342\356;\274\336\n\275\203f\016\275\340\252\266\275#\005\326=\351\330\370<\222x.\275B\025\311\274\262[\034\276J\341\207\274\332\037\310\275\376\211\t\276\274\231\366=\303\207I\275\316d\034\274\256\006\364=(H\236\274\001C\332\274K=^\276\247\002\262= \361\243\275{\273\305\273y\364\032>\t\300\021\276c\303\360=\337\2274>F\202\216\273\355\313x=\354\201L\276\020@\262<\250\030%\276\2052\356\273\236\264R>\351\252\223\275N\370\201<\3342\014>b@S=\357]\257\275\026?\330\275N\031k=\257\334\250\276k\226#\275U*]>.\213\001\276[\n\302=/\222\025>\247A\253=\374\013\240= \033\374\275^\022I\275#\025<\276;\310<\275\204\361\022>\212\027\236\275\363\\\010>;H\375=j0\371<;k\007>TK\270<-I*=\341H@\2758W?\276\262\225~=\"\341\337\275+\226\022>]{\216<2\033{<E7\276<D\353\215>\004\343\242=I\213\252=\262\025\330\276\204\230\005\276p\2105\276\332\017Y>\257O\351\275\213f\013>\341\316\237=\020~\237>\360\257L=\205\335W>\377-\326\276\304\314v\276&\226S\276/\217G><\357H\276\373\311\226<\374\265\320=\257\231\356=\323X\214=\005\337$>Y\364\021\276\237Bw\276`\362\240\276\206\304\214>6\300h\276p\351\226\2752\370Y>Q\314\251=\224\027\010\274\010\276\376=\010\344\232<\025\301S\276z\256\346\276\233\243\263>\374\341\200:k\013\251<Y\0249>\360\244\204\275=X\023=\364\255Z=\016\344\322<\322*\370\275:\366\304\276\307\006S>S\241\016=\242\273\213\275\252\347_>\005\260#\276\253\033\266<\276#\325=\010\364\377; \315@\275\236\354\247\276\273\345_>6\354\356<\215C\270\275\304\004%=K\023\036\276a\'<\275w\217G>(\023\360\275q\337\020<\213R\251\276\207LY=_\246\334=\020\016>\275s\344\007\275\266\236\205\276G?\322\275\210\345\304=\2201>\275vf\357=\263\275#\276\004\222\321=]{\020>\260\255\020\276.R\245=z\247\251\276\320\370;\274-x&=\336\202\010\273\303\264D>ri[\276\371\033\200<\006j\020>\324\254@\276\324KT>\222\002\355\276\253ZO\2767\004K\276A\031\025\276Y\266\266>8\340\252\276\362c\312\275\304\333\314=\216\340\245\276s\016a\274M\231\330\276\312\267 \277Y\325/\277C\363\206\276~F1?\345Y\336\276\323\000\261\276NO\256\274\213\211\271\276\345\267\027\277/&\345\276\215R\354\276?\021\327\276\243\331\317\276)\250\034?s\372\005\277 \021\207\27641\\\276\261\267\361\276\214\035\375\276\007\301|\276yb8\276\266\264\214\276Rr\227\276\347k\270>q\223\335\276\207\'\272\275\203\220\275\273d\371\302\276[\003\033\276\321\364\267\275\002\260\231\275\242R3\276\314Wq\276\004\245\022>\3462<\276\001\273\004>}\3351\275\236\3732\275\007\341\323<\367h\351<#\355.=\270\272\360\27543\316\274\340\262^=\002\362 \275w\005A=\301\213\325\273\247\263\026\276\013\336.\275[@O\274\372\325\374\275\336Z+\276\345\255\351\275\003\225#\275\341Q\214\275\374\001I>b\010\341\275\201\251\344\275H@v=\255y\310\275\217\235(=^\305\253\273BT*\276l\003\001\276`v\270\275\367\222\213>U\317\207\276\250v\266\276,\322\345\275q\343\022\276g\006\252=S\237\375=\202\034\266\276\013:\267\276\330f\245\276\342B\212>\014\201k\276\274\234\254\276\023S\027\276lO\314\275\346-\270\274`\254I>)\031O\276.U<\276\257\343 \276\267\243\206>\"\236\221=\016A\233\276\277o\365\275\3564S\276O@\334=\375\226\021\275\016\366\003\276\005\267\007\276\261\306p\276\355\2513>\330Z\360=d,\363<\366\357S\275\354\205?\276\021\037\000=\212\206\206\275~.s\276&O\205\275\202 \376\275\205y\231<\013\354[=\177\370\371<C\275\332\275\361\234#\276\373\262\265\275\325\037\022\276\372m\217\274v\333\017>m\306]=G\244\332\274wc\037>q\322\272<\355M\026<;a\244\275H\033\243\275\243\003\230\276\356\346?\271\223\352\027>ZE\024\274\265MP\275\314Ub>,o\016>\3277E\274\010\262\201\276\022\3168\276Z\323\213\276\277\211\326=\205\3243>\267\211\312\275lV==\354\263D>\212\251\351=\272\326\242\274\225\224\317\275\342[[\276\315@\264\276N\217\010<\275\037m>8\270\266\274u\203\317=\177\224B>3\177\016>\\\251o=+\215\024\276A\354\003\276\227s\235\276O]L=\252\nV>\014\253\250\275\364W\273=\341\n\345=\002\222\032>;H\304\273\275\357\213\274\367\346\037\276\214\324\262\276\206\361W=\2009Z>\213\013\260\275s\377\274=\325\312)>?\003\270=@\311o=\370\355\340=\347`\207\276e8\023\275\024\253\023\276\001C\340=\221R\217\275\322\222\354=\254\276M\275\274\335\352\275\327f\250;\025\230\313>\374\324=\276w*\006>j\360\377\276\273\264I\273f\355M\276R$p>\247\214\006\276\315\352\004\276b{\t\276\371\347\243>\215\014M\276\247\311\001>\243\342w\276\023J\354\275\355\277\272\276\310\222\300>\303\003s\276\2372\234\275\362\253\032\276\327;`>\225\323\247<zm\255=Yq\334<\211\235J\276\241\360\355\276&\211\241>\246\206\222\276E\336\010\276m\237\357=\265\2463=\251\243\276<0hB>\244\n\252=\030\236\205\276\177\364\227\276T\252{>!\204\272\275\"@\245\274\335#\334=\232\301\037\276\004\354\237=\255$D>T&H\275\000\243[\276\014\365\243\276\275\235Y>\251\337\002\275\352\206\272=\323\257->\366\365L\276j\306\337\273:)->\323\024\364<\216\234N\276\251\230\241\276\371\242@>\275\325\314=\313\316\200=\266e\351=\256\321\010\276/\000F\275+\300\036>\351\034@\275IXS\276\355\242\201\276\276\204H>K~\276<v\317\222\273\375A\272<\000T\220\276\365\002\204\275\276\237\311<\001?$\276\266T\356\275\331((\276\321X<=\222\035\307=\231\335\334<\215\\(>z\215\317\276\216\365\371\275\232~3<(\374\314\275\007}M\274\256oL\276f\222B=ow\252=rh\313\275\306\252o>\350\002\275\276Bd\204\275\377\323*\276\032\031\225\276\215\301\303>\247\254\037\275g\344\243\275\0140\022>\3621\013\276N/\350=\326\215\026\277\025~\317\276\361\236\023\277\354\317\247\276Xz8?\2718\213\276X.\311\276\250\017\276\275P\267\267\276\223F\377\276R\202\235\276\222\034\203\276\271@R\2765\324\315\276\206\322F?\360`\n\277\235t\204\276\362\200F\276\300y\347\276\215#\335\2765\3312\276\306A\016\276,\360\221\276\270\302\247\276R0\005?\361*\342\276\033[\026\276O\327,\276\311\202\317\276x\224\013\276qe/\274,\262\026\276\317\366X\275\034{\005\276e\r1=0\217D\275\206\036\204=\020\363{=$X%\275\347\235;\274#\372\310\274YZ\357\274\026\n\305<\320p\352:P\305\301\275\027!\271<\201\333\276=\211:\377;-\222\303\275\252Pc=\271\361\323<\033NA\275%\347\366\275\376n\203\276\205\250\323\275E\361H\275L\337\357=\304^\177\276X\225.\276f\255\344\275t\377Y\275=\260\376\275v\337\236=\321\353\252\276\207}D\276\256\243\247\275\273b\266>\346\034&\276SA\225\276\017\377\370\275\371d\311\275\325\304\022\276\314\037\005>\001o\032\276\3742\344\276\310l\227\276\030\364\225>\274\031\365\275\376;Q\276\016\351e\276\277\t\375\274Ag\'\276\332\224\366=\310kn\276\020\026Q\275\3173\005\276\206BJ>C#\306\273\364\014\030\275\261\305\313\275\211I\310\2759%\303\275\276n\266\275\371\362\243\275\002\217\035=\307\3435\272\361}\254=\177t\035>o\200\350=.\211s=\216\017\205\276\340\325\206\276\333\371\203\276\252\252\203\275L\3110>\331\354\010\275\312\346\233=.]\341=\212\t\006>\277}\025\275U\350\265\275\275\374\260\276|\236}\276\255\326\272;\005$\356=\036g\206=\356\345\242=j\030\210>\235\223X>\344Y\024\275\365\237\240\275s@\311\2764@\305\276\035\365\003>\236\030\025>`X\274;%F7=\214\257\013>yj\021>\216\357\203\275\311\034?\276\257W\242\276\255\035\226\276_\276l>\016;\264=\224\n\255=\226\212\237=\351\352\007>\235\276\004>\272N\314\275\230\222\325\275\345\360\310\276Z;\263\276\367cR>\"\361\016>\215\004\034\275^O\016=j\305\364=\223\344|>\316\330\273\274\303\0339\276?R\270\276Y\244z\276s\362\204>\314\341\224>\345\002?=\\\031\216<\246\001\256<\237 \215=Oq\346\274\252j<\276\271\223\005\277\t\272\035\276\004\252&>I\237\241>\376\240\263=@\317a\2759\227\013>\267y\222\275\214W\203\275\n\366\t>i!\017\277\243M\264=\177`\254\276U\233o>\236_\021=\224@\177=F\312$>\335\233\255\275\017\217\246\276\265\373\300>\220\310\320\276\334\261\344=\026\316\355\276\236\253A<\225ts\276\033\\\325=\272\353\032=B2\307\275\326\375\304\276I\261\334>\352\313[\276_DR>\245\306\372\2757\352\235\275\252b\270\276Nv\207>\034\301\232\275yx\371\274_\312\241\276E\032n>d\253\004\276b\301\001>\210FC>\325\336b\2763\307\205\276>\211\230>FM\212\275\232\245\367= cK\276\256#\202\275\272w\251\275OX\347=\362 \305=\336#j\276\335\327\202\276\306\035\275>\342\365\t\276e\255?>G\204l=\327t\035\276\350\025\305\275\254\t\236=\304\023\020<_1\206\276Ul3\276o\037p>_\222\316<i\317e>N-\261=S\231\203\275|\276\231=%\377\213=q\356\320\274pL\307\276\334\242\031\276i\371\313=n\204\272=\342\355M>\2341\244=t\265\001\2768\241\342<,\264]=\272N\333\275\202\247\334\276I\310\032\2762\226p=W\364\n=6Rm>\036\310V>\345\033\014\276\341\033\314\275\036\242a\276D\340#\275B\363\365\276\".<\273qat=\212{\327=\351\201&>U\350\335=_\357%\276\237\337\335\275\367\347\371\275\023e\034\276A\226\273\276\224\242\022=\307\310\350=\343\271J>l\365>=W\255C>\301\\]\276\224\367%\276_\325h\276\332\303\302\276\017N-\276\370*\\>CdZ\276=H\\>\305;\005\276>\001)>\370\320\256\2768\217J\276B\365\337\276\266*\004\277\365\3773>\251\276\274\274\033\251\363\276\036*(>\322N\303\276ise\276\355\000\205\276\352#\223<,\014\023\276\213\274\245\276,u\000?\370\321x\276\016\233\312\276\\\226\017\274\322[\260\276\325}\270\276\030\010\373\275l)i\275\240>Z\276IsH\276\370\307\230>\214[\220\276BQ_\276\275<y=p\246\213\276\307\330\321\274\350r\254=\207\t\025\276\320r\346;\235C[\276B$ <\301\031\027\2767\233U=\031Cd\273\3102\214\275\341>\242\275\262l0=\316\240\276\275\024\017\361\274\361o\252\271c\022\251\274\353\324\230;q\203\333<\263G\351\275\277\373\344\275\264\217|=\000\263\262<\024\r\013\273\242\246\021\276<\352]\276\234pK\276C[\211\275)\315=>\357\360<\276\027\010\200\276\362=\372\274\305Dz\275>X\374\274\234m\372\275\300w\246\276N\002\224\276\010\177\r\275\266\374\272>\215\016q\276\257;\245\276\316\334<\276(\357\306\274oe\205\276\222\022\200\274y?O\276\251\306L\276y\t(\276a\226\224>\344\r\272\275!K#\276-S\\\276\024n\220=w\232*\276\312\201\006\276\222\000f\276\tL\277\275XX\202\276\224\266\235>6K\036<\275\304\207=b\202(\275\246@_\276\372y\212\276\205\214\203\276\021\202>\275\020*\337\273\262C\234\275SE\214=-\250\241=d\356\203>\206Y9=E\312l\275\301\260\373\276-\026\206\276M7\304=#\350\000>.R\262=7h\221<o\340->\266\271\202>\\\226\303=}\323\2219\201\236\021\277\247\262\250\276\262vb>\232\255!>\311\204\005>\335\307\351=\215\215,=L\004\030>\212\356?\274\357\331n\275q\253\304\276\220\037v\276\356\022\031>#\253\252=\327R\340<f2B<\031\303\212=\233\370\010>\375h\306\275\033\376Y\276\033\244\356\276@\346\353\275\002\272U>\377\0246=&h;=X\327\033<[\335\357=\207\247\035>\200\246\331=:\022\212\276|\251\332\276F]^\276\2355\207>\026{!>\261\206\222=\266,\252\275\210\\\214\273\2549\240=\263i\243<\242e\251\276V[\345\276t1,\275\004\241\310>i\210}>\037*\016>e\230U\276\000\310\243\274\025W\211=._T\275\027\013:\276\036q\344\276T\364^=w\032\230>\307\262f>\246\206\323=\333\037\332\276\374\235+>\030\006\037\276\304\004k\276\232\033\220>R \370\276\241\325\000=\010\306\t\276^\002_>\323{\226=@[\356\276i\335~>\315\223[\275\351\233\312\276\346\322\334>>\327\264\276\247\223&>_\361\202\276\207\315\311\274\352\232\200\276Tj\220\276\345\263\273=\340+\t>\222\241\373\276p\004\262>\367U\304\276^\025?=\257ax=\000\306)\2768\2333\276\275\000\016\273\013\235\246<\315\211\370=I\365\267\276\331\3267>^\2160\276\213\272\257=_\337\215>\030\354\220\276\317:\006\276\322a\234>@\245*\275\255\274|>Y\236p\276q@6\275\214o,\276\223;\320=\364\374l>\276gN\276~\036\032\275\265\266|>\252s\251\274\027\"\237>\366\3648\275\243\274B\276\271\032\357\275<bV=U\325\014=\025/Q\276\0255K\276-E\023>$}9\275\322\2306>vN\305\2743\220}\276\273\026S<\276\235\013<\034\016\017\275\314\361\267\276\304\236\312\275\376\250\021=S7m=\250\275I>\225\220\246<\\\362\034\276m3\351\274/,\272\275\241\233\014\274\t`\210\276m\000\221<\234\n\305=\032\311)>_\337\222>\235;\363=\005xy\275*\263\367\275\372\261\232\2763\014\377<\202\313\n\277\343\3310>S\375U\274\304\227F>n2\230>\342\346f>\007#L\275<\234S\276\025\202\223\276\251\023[<\266\3037\277+\355\241>\235\314\004\275\262A7><S\004>\245\256:>\002f\377\275\2749{\276\336\347\333\276\032e.\276>\235A\277^\351\202>\361\210\021\276\237\301\205>\212_<=sSv>L\336\235\276O\2315\275_q\227\276\315\306^\276\217\210\010\277\2751<>Gw\220\276=\375U>\340\021\264\276\350\r1\274\214\325w\276\240\233Q>\034\301\205\275\202p&\276\311\314\216=hx1\276v\350\257\275\006=\305<\303\354\003\2778\022o\276\302\315n\276\324\323N>\326\316\322\274\003\260\000\276vR\315=jd\235\276)p@=\004\315w=\3216i\276(\024\212\275v\231\202<\035\263+>\211z\001\276\325I\352\275\023~\265\275\351O\371\274)\310\n\274d%\016\276H\203\224\275T>\215=,\375\020\275\251\t\256\275\325??=\2531\213=\357\005\006=9\260\003\275F|\274;C\250\304<\022!\036<\364f\177=\303\254\251<\024\023\300\275\023\260\r\276\002\251\333\275\255s\024\276\234\227\272\272\000g\030>\321\'\321\275\342\017N\276\371\016\213\275\363\021U\275\255\254\300:\262\262h\276\0162\217\276\243\001|\276\235\377\024<{c\250>a\304\212\275q[\274\276\376%\021\276+\261\361\273\021p)\276B\243U\274\345[\202\2767\020\331\275\314\247\207\276W\356\261>\2352\323\275cr\237\275\326\363\220\275\360v\250\2748\212\252\276u\3601\276\346\024\311\275\2346\256=\031`\360\275\217\332\227>k\024\371\275\370.s>TN\267=\312\352|\2758\373\027\277\2406\246\276\306d\377=\243\210+>\363\265\271<\336\245\232=::\220\275\3422M>q\014\360=\036\350\004\276\244\030\374\276\322\021[\276\\\347Y>\377\224\010>\032\031N>\241E\216\272)\301Z<\210\347\">\001\320\357=\r\275&\275\013\302\333\276\267\322~\276r\361\201>\241;x=\251\230\352=x\034i=\203K\340\275q\004\020>\270B\034=\343\306\037\276\241\010\303\276\265\370f\276\215\010\\>\351\342Z=\325r\'>\2200I\275Xx\002\276\301\212\037>\3447\241\274\377ww\276\206kX\276\370Y\001\276r\270z>\030\326\240=\352\024\024>\207!\013\276\234\223\353\275.+\320=mp\220=\332\017\236\276\233\207{\276yC/\276^)\274>%y$>nS\306=u\344f\276\237\0052\276\276a\241=\245\214\205=\261N\275\276\027\362\001\276\341\375\021\275\237\242\315>\177#f>\344\317\362=\364\223\343\276\345Q\300<\034uw\275\331\033\245\275\367\024\252\276\302:\347\275\201\250\322=X\377\200>)\374\264>\271u\000>\200\241\010\277 R`>\2616\177\275Qm\265\276\346\003\220>\203OH\276\214h\343=\325\305\276\275\300\227&>}wf\275\322\027\376\276\003\200^>\244)_=\223\001\313\276S\016\256>Gy\311\275\247m\305=|\213\264\275\227f\217\275\364\027\245\275\234\030\253\276\034\335\337=\354SC>h\235\315\276F<\310>P\315\025\276\262\276-=\315\242\303=\365K\016\276\242\270\362\274\343\364\014\276>\330=>\302\010C>ID\330\276tV\257=\273\334A\276\307V\263=\237\330w>\300\004\262\276\253\362\350;\361\347\303=\357\035z=[\310\232>\273\"\242\276\354s2\275E\272;\276\337z\023=\327\3775>\351\364E\276\255\332\261\275}X!>]\310\000=\003\251\246>\236\2459\276\235\374g\276?B&\276Y\257\030=~\3474>c\351<\276-\340S\275u7\022>\343=\304\275\327\301\213>\315\247\305\273\315Q\222\276\350\344Q\275y\0241\276\005\023\003>\257\246\327\275\275\033\364\275Y\274\240=\353\266\330\274\247\202Z>\032I\206\2757X\027\2760\364\360\275EJg\276\353F\337=\213A\003\276Q\014\232\275\333\303G\274\232\346N=\005\023R>~H\307=\310\326\031\276\311\372R\275\324\242\227\276\367\300\364=\036\367\177\276!\301\376=wc\017\275t\372=\275_\341.>)4\036>`\257\351\275\243\334\r\276\235s\302\276\371\305\322\2746b\360\276\313l%>>\370\327\275\236\203\020<.\361]=\225\353\030>8\306>\276|]+\276S\200\264\276\341(\262\275m!\034\277\'\003\221>\357?\240\275\322\306?\275Yp}\276\363\255\204>3\210\262\276\264.\263=\333\023\222\276\301\213f\276\261\360\032\277S\020\236>\353vQ\274\354Y\373\274\320\255\317\276\246\253\212=\216f\243\276\310\231\251>\250\036B\276\234F\257\274\231\317\032\276\206V\377\275{\375~=\030\037\022=cN\260\276\367\244(\276\2456\223\276n\034\266>\214\273<\276 \225\006\276\020\007#<L\346\305\276%s-;\246mh\275E\227\221\276\323b1\276\303\364\201\275\025@\t>\177\020=\276\375\300\022\276\213@\016\276\"\032U\276\005\0145\276Ya\r\276\224\026\314\275(CN\275k\n/\275xc\004\276\273\\N\275\263\210\243\275\234\242\002>\367\345W\274U\305s\275A\244\243\275~)\216\2755\266\265\275\010\032T\275\260x\006\276\321\317\003=\031\357\020\27628\330\275\025\254\350\273\2400\323=\274L\212\275\370\247\300\275*k\014\276\216\212\251=\002e\336\275!\265\217\275\357\263\301\275\241o\260\275\255\257\036\274C\322\222>g\007\020\276\206.q\276\371\3709\276gCo=\316\300h\276\317\306\246=\2265\270\275i\375\n\276\377fQ\276\240\245\372=e\202y\276\330e\343\273p\317\037\273\006\007\233=\346\244\251\276\1774\214\275\270\202\277=#\035O\273|\330\244\276\354\330\030>j\246$\276\267\031J>\236;\217=\356\231\334\275\230\356\301\276\306&\212\276\267\306*>\320\243B:\276H\353=#\223!>*\265P\276?v\'>\277\232;=\371ED\276}i\256\276a\374\255\276\231<2>\267\354\206\275\n\277\374=\200\332\232\275\275\230z\276\364\206\264=z\342\026>\206\031@\276^\336\224\276\031\205\225\276}\005\202>\303T\322\275\224\347\222<6^\205\275\204/\234\276HJ\016>(\315%>W$\367\2755y\022\276id\024\2769-^>\222]\016=\325\034\202=\253\213%\276\357|=\2768\202|=\017n\216=\212\376#\276\375\276\r\276-\354\336\275\316=\235>E=A>e\200`=\354\\\020\276,\333\031\276\244v\230<\320\245\032>\344\202\251\276\304R\367\275\213\243\014\276\355h\211>\213\344\033>\023\275\374=:\200\230\276\315\027G\276\243\216\314;\363\254\"=\240\n\316\276\032\203.\275\302\220*\275\352\025\231>y\324!>\343\310\200>\271.\326\276<\013\376=\352\030\007\275\350\324\271\275\252\245\310\275*\032\330=H\356?=c5\220>O\260\354=+\037\365=e \"\277V\303\'>w\223C=\326\326\242\276z\006\322>\227\374\360=`\3346>\234\014@=\236\315\024>\335f\240\275\337\310\340\276N\365\215>>\271\225;\216i\n\277\237\032\335>s:u\275\337\230\307=\247\244\301\275\324?\321\275\345{B\275\000S\200\2769\206\354=\223/\013=\241\346\376\276?^}>\252\320\321\275\364%\364<nZ\364=\361\364\r\276\267d\275=\277\330K\2752w\247=D\206\016>\327\231\304\276\333UL\274;6\251\275\302\022[<\210\240\232>#MJ\276!\231\206=\340M\340=\350\021\377;\r\277\224>\236\361\207\276\202<\222\276\377\004\257\275\206\340A<\273\325\275>\262\222O\276m\217b\275\022[\266=\027\264\226\275\035\201Q>\013\033\215\275\307\375\202\276\361g\"\275=\031\210=\235 {>\331\342\360\275\233L\247\275`!\364=uq\360\275\030\321A>\312dg\275V>E\276\257.)\276\337\250\265\273\006\214\215>\257}\022\276\027\223^\275\'\357\223>\007\216\262\275\203V\032>.\0004\274\325\304q\276B3\354:\210\356\014\276\244\3479>\267_\325\275~\203\273=4w\003>U\033_\276\230\216\333<HH\330=\317,|\2767\317I\276\262\373\222\275\360\031m=\246\226\322\275\235\207\272=\372\017\352=m\314>\2769zG\274\335\351\200=M]\347\275\260\2473\276\370\r\217\276<\323\206=\273b\277\275\373\026->\004\010\010>\372\226\251\276\204\270\014\276\001\375.><1\334\275,\215\026\276j\244i\276u\245\311\275\256\315t\276x\'o>v\255\264<\305\235l\276\003\275\205\276\177r0>\021(\371\275o0\217<u\245>\276\271\302z\276\216\212\177\276C\254\033>j1\302\275{\372Y\276\267\007\371\276\005,2=\300JZ\276;Q\276>\324O#\276\032\340\016\276\366\265`\276^\035;\275\2537\003\276\353\264\177\274\232\023\201\276q\030\224\276o\201\035\276\212\232\325>\037\246\214\276]\273\201\276\3039\252\276\361\350\266\276{\0263\276\0221\226\276\226N\331\275\222\036\361\274\3061\214\275U\200\360=\375\345\004\276\010\376\200\274\350\022<\276^&X\276\221p\201\275\340Y\270\275:\232\246\275\027\242\246<!7\234\275\237z[\274U\231%\276\030!\207\275c\010\002=\033B\006\276m\371\225=\211\207k\275\332\220\271\275\270\362\031\275\r\207V\275\244R\367\275\330\243\247=\276\216\224=#\252\343\275(A\227\275w\rm=\035x\037:\211\352\322\275\033_A\276\240\252\003=\307\312\363\275+\314\217=+\214>\275\342\360\350\275O\003E\275/\353\037>a\272\304\275\357\006u\276\t*\233\276\'\335N\274\264\205E=<\3047=\201 \251=\322\006\340\2750\325r\276\360\312\004>\215\362\024\276\352\305\232\275\304\323\034\275\275\341\303\275\237\373.\275l\357^=K\225\351=\304\027\374\275^\375\n\277)Q\233=\360\312\237\276\214\202\020\273\357\007:>\317\313\364\275\026N\3539\340h\250\275\\/2>\"\274u\276cxh\275\306\024X\275\371I\274\276\177\233\364=\017\273\020>\2629\005\276\320\016\"<<\321X\2766\003D>\037/7\276Z\302~=y/\030<\014\'\243\276%\262\207;\251\306\336=\255\302\253\275\241\305\312;\267\200p\276\314~?>i\276w\276\346\033\025>\262C$\275\275Y\212\2762\220\315\273\314\345\371=\033\327\373\275\267\n:<\221Q\203\276\247\216\203>\303D\000\276\217\324W=\203\362U\276\274\n*\276\n,$\275\375\023K>\354Z\220\276\376\345k\275\033t\220\276g\n]>\337fC=\016\345\'>=F\177\276Gt>\276\205GA\274Lq\362=R,\245\276\312_\210=E\322\362\275Z\261\366=\202\235\020>O\362\212>\266$\271\276\321\370\250\275\274\177A\275\2566\270<\345\266L\276>\214\t=\202SN\275\262\254K>\306!\n>\321:]>\205B\305\276\216Z\265=d\237E\274\277:y\276\262\267\213<+I\020>S\232\254=\355D\251=N}\014>\3541=>$\033\360\276\244\252{>~\n\361;\330\022\357\276gT\217>\231\263\000>9\316\032=\336\267(=e|\374\275\200\251\r=E\\\257\276\212Dm>C\027\311\275\330\374\007\277\307\376\360>\261\327\230<\036\254#=\034\335\274<\022\253t\276\366\273\'\274{(g\276J\023\002>\375\354\003\276\323\020\314\276lx\213>\201p\224=\024\031>\275\373\027l>\234\000\211\276\024\207\004>\343JY\274+-\305=\372>\323=\322\031\236\276\263\372j\276\251q\207\275P.\013\276\n\254\225>\005\303k\276\'\261\207\274\033\255\277\274\335\301G\275x\265*>\230_\201\276o\262\213\276&\247\003\275\n\013\237\275\370\376\226>q\007J\276\337\230\326\275{\266U>\317\270\251\275\002!?>\325\266v\273\223\304\221\276\306\350\006\275\201\031i<B\372%>\2779\352:\005\024\002\276\235\223\231>\250\256\315\275\300\370\250=R~]\274\255\373\216\276\217G\374\272eVR=\371~\031>\367I\323<Oc\230=h\034a>~2%\276\362\313+\275?\000g=\201\036\223\276F\325\033\276\222r\245=\332\361\366<\322i]\275\216\351S\273X^\233>]\226\225\276\0267\336\275\210Qm=\376\3547\276\261\372\255\275\334W\261<\203\356\203<\353\307\242\274:\305\000>\317oH>x\'Z\276\333\367\374\275\022!\024=\303\201\031\276\3410\322\275\307MN=/g\017\274\005^\321\275\324\020\020>7\001$>\307%s\276\262\352,\276\241R`>\313+h\276\034\235\035\276\273<F\273\354\377\370\275\233\234\000\276\245H\331=\332\006\241=\014\321P\276\3416\222\276\345\010.>\314\375\227\276\3733@>\177I\351\273B\355\212\276\355*\317\275\227\034M=\327\336\333\275yN\222\276\354\335\363\276\006NZ\275\2459\201\276\252\001\344>:V\212\276\353\246\031\276\177\206s\276\325\242Z;\355\251\020\276\262,\026\276\366\272\267\276\007\215\202\276\323\235\204\276\013\272\221>I\336\215\275\332I\017\275}w\177\276\310D\226\276Th\221\276R(\220\276\315\327B\276\265$\030\276\007I\003\276\'_\001>\347\224\361\275\020\330\344\2759\347\356\275m\235]\276\322\342\021\276?\313\351\275\331\\\273\275\2054\310<\254i\230;\346\361Z\267\203/9\275\303\250\t\275\007\212\031\276\302\351\2009\364p\255=\215D\331\275\032P\341\275\202\307#\275R\327\000\275\312\255&\276\234\271\025>9\217R\275M\231\204\273\263\330\313\275\324\240y\275J\212\026\276\375c\020\276\370gU\275s\372\007>\216H\322\275\264\227\235=\345\025\r\276 \250_\276\211u0\275\315]S\275\021\372\342\275\304\350?\276Z\233\234\276-\232\013\275\313C\033>q\305\007>\322\033\275\275O\2367=\256\363\220\276\311\013\245\274\024\022#\276\205\247\035\275%\342*\275^Z\355\275\333\t\031>\324[\010>\241\2327\276\352\'\026\276\205i\344\276\351\211\223\274\257\256\223\276\r\262\177=\037\235e=_Pl\276\362) >\215wv\274\016)\272<\241\304#\276\215\246\003\276\276\267\'=\021g~\276\230\363\307<n\217\302=\223c\235\276\200\332\364=g\024=\276}\2716>\324\'\036\276\025\240\240=\260\323\253\275/\005Z\276v]\215\275\017\375\007>\25227\276\357\333\006\273z\277v\276B\257C>)\351\226\276\345Z\310=\036\361i<L\241%\276H9\231=,\360\347=g\235*\276l\027\350<\227\222\223\276\260\245f>\346\331\217\276\2077\345=\004f/\276?\366\236<T7\264=Q\327i>^%U\276\003\355\330<y\322\\\276\3527 >\257\274\241\276iqZ>\204`o\276\237\371\203\275\372\311\223\274%\257\310=\261\n\022\276GB\016>d\373p\276\270\026\217=\t:f\276f\216_>T\035\257\276\034\243`\275\354\210\347=\211tz<\244w1\276`\200&>\235\007+\276c\340\274<:\037\305\275\"P\267>f\022\246\276\002\257$>R\357q=.\200\225\276\366\013\304;s\364\215>Y\340\003<\372\372\353=\376\r#\276\257\037\031>\204\353y\276\243\234\034>%\016\216<)\303\343\276S?u>\371\322k>\375-\256\275\267I\241\273\260\362!\276D\364L\275y\356\023\276\275\265E>a\335t\276\372\303\316\276\000%\315>\217\033\313<kx|\275\366\2475>\210\303%\276LH\006>\344C\367\275KP[\273\220\206#\276\245v\337\276\301k\243=\210\320K=De\037\276%.\241>\246\177)\276\np\006=\024\025\272=v\362r=dG\306=\261Lw\276\254O\231\276\370D\351=\027`\003\276\331*\250>?/\305\275\226\2101\2754\031\001=\341\253c\275\341r\307=\301\'\372\275=\375\256\276\t\373/\275\257\253\013=\340\301I>d\266\034\275\306\270\333\275\004\306a>7j\257\275r/\007>n!,=\330\313\203\276s\237\234=\267\344\377=2\326\034>)2f=\252j\245:\214\342N>Q\326\206\276\311>\363\273\335\034\010=\256\341~\276\347}\004\275\372\347(>\027<\335=;\257\315<\0222\317=\320Vv>\036\313U\276\261\351h\275\303\375B=\343|:\276\353\260\315\275\271\266\257=\027\376\207=3\273U=\212\212_=\337\n\014>\2055\222\276\237\304\177\275n\264\325=?JQ\276Mf\211=N/\r>\373y\311=\007\274\236\275\362v=<\314\203\024>\243\037q\276\251\376G\276\313\307\007>\t\3672\276\255\253\\\274\231\344\t>\'p\023\276\246\301\262<\313N\214<\220`\017\275\013\025\223\276\0221\211\2769V\351=\006\365}\276L\257\301=6\271\003>\361#\216\275\\\221\362=\251\242\274\274\002\361\321\275\272\344?\276\371\231\342\276\003\262f=\'QL\276i\227\206>\260\010o=\312V\'\276\275\2028=I0\274\274\271\376Y\275\333\227\026\276\230C\335\276\205\344\352\275p\020\305\276\365 \004?\260\370\245\276\245\260\224\276~\3513\276UjP\275\277)\356\276:\351n\276E\n\234\276\300\340U\276Z~C\276\215i\343>\311!\022\276\005\210o\276\0218\210\276 +\353\276\271,\231\276zO\262\276\273Y\231\276\344\335`\275\020\002\020\275\245\3237>\204\353\205\275\033\2123\275G\036\211\275\325+0\276\'\214%\2743\003t\275\374h\374\274\234\337\022\275\374\307\353<F\300f=z\320I=b\377\222\275\374\270\212<\260\362\314\274\365\273\243=\252\333\236\275P\233\037<\250@_\275\323\333(\275\266(S\276\031: =\352EM=\251fh\275N\361\264\275!\373\344\2756\252\327\275B\367\201\275f\367\026\276_8\273\273\211\3050\275\345\352\n>~,\271\274\035T\233\276\371\217<\275\273\327\352\275\277\341\346\275\202._\276uQ\222\276\351R\001\276C\374\211>\352Sz>\304\222\233\276\002E2\275r<\236\276{H\240\275\377\311\221\276J;\276\275a\214\t\2751\024\t\276\322\374<>\007\252\215>46\205\276A\226\262<\321\374\007\277\336\275\326\274\222Z\223\276Z\031\373\275\203\200}=\222\353\217\276\206\217\224>\377\253\254=`B\022\276.WN=!\236G\276\276\306R<+.\177\276\t\332\345\275\255\230\272=\350\306\306\276\3264A>-7\352\275\340\032\277\274-j&>x\363\374\274\212_\035\276\306\300\030\276\223}\220\275\352\017\346=\036\327\300\276\363Y\361=xt\267\275j\r\352=\262\227\031\276\315_A=z\277\n\276j\213\255\274\332C}<\301a\367=\276-l\276\035\001\315<\317nb\276\017.\024>\250\257\271\276_\306\351=N\261\022\276\226=Y=\352\0242\274\030B<>A\351K\276H^\257=8\350\241\276\207\271\320=P\235\210\276.pB>\231\003~\276Q=\037>\340\030\240=\235\346~>\263\372\233\275P\277\372=\"5\360\276\336\253\362\272K\030\200\276\261\320l>\214z^\276\031\336\350=\034\251\375=\354\3346\275]2\234\273\251\2324>;\214\245\276a\021\364\275\361.\266\276\006n\214>\016\220\221\276\374w\311=l\340\220\274\302G\206\276(\310\032>9\211<>j~\236\276\241-\340=\306iq\276\241>\223=0h\320\2754\ro>C\224\342<\014H\364\276\273\361V>\312\355c>AL5\276\205\344b>\243-\210\276e\242\366=\203;\307\275\336\035K=*$\361\275\264\006\357\276\343\336l>\246\345\327=>B\200\276\374*\241>\275\340q\276U`\322\274\220\232\274=\244\321\024\2744\322K\274\004[\260\276\330\3704=WZ\204=\362\325&\276k\201\235>[\373\346\275\024\335\007\276u\353\234=[\212P\275\0228\374=\316\354\350\275\300MM\276\313\353\273=}\002n=/\r~>4y:\275\276\245\323\275XI\247=\327\342\032\275}?\334=\212O\361<\352@\267\276,Y\244=\001Q\344=\277wE>pNl=\336\037\236\274joZ<D\232\254\275\350E\267=\321?5=\017Qh\276\261\325\347\274\373=\201=\030\330\350=j\013]=\302\217\022>\373K\n>\017\370\363\275\n\037\204\274\322\267\0217\362\2372\276\033\227\201=\033\310S>\226\004\273<5\216\355\274(\032\255=\345\254W\2758L\371\275Oe\000\276\213\216\317\271;ec\276:u\360<\262\3730>\312\327\225\275\356\n\242<\224*\033<\205o\225=\371Z\356\275X\247\241\275\335\370\277=\264\t\373\275K\203\003=u{->\206\210b=\367\007\223=\304]\010=\030\274\255\274PA5\276\231\277J\276+9\211=\272\335s\275\2752\361=F\244J>\203d>\276\205\253\264\274\301\002m<\322\003\337\275a\010\271\275\022\331\252\276\302\234\275=>\302(\276\r\'\304=n\346\016>\013\3575\276\243\2407=\370{\201;\374\226\\\276|Y\310\275\304\277\301\276\211\2147\275\021g\245\275dT\257>\264\202\037\276\313\337t\276<9b=B!\243\275^\016\306\275\252\362\367\2753\203\002\277$4\201\276\202\370\231\276\322\205\351>/\242\313\276(\336\331\276\013\331\216\276V\324\033\276H\304\350\275o\037\000\277\024X\277\276#b#\276\324DP\276p\301\275>\241rT\276\326\326h\276+@\216\276n\254\334\276\010\242\221=\202{\232\276\320 \212\276\340)\032\274!R\343\275\345<y>\353\236M\275\013\372A\276\353g\305\275j\270\202\276ib\025\276v\001\t\276H\363\023\276\255h\241\275\354\201\346\275\323\3217\275\267\010\033\276\335\205\347\274>\366)\276\336j\243<I\363\337<\217\222\025\276\207\354\347=T\022\007<\n\'V;s\347\003\276\244d\224=\342\351a\275\215\365\'\276\363\276\261\275\266?\220<dp*\2763\004\347\275_aO\276\362\250\r\276\275A\264\275=\206\031>\232\261\352\274\323\002k\276\232*\370\274,\375\215=l\357\266\275\334[\036\276Pc\214\276\232\312\034\276\372\264$>\265\360\322>R\272\257\276\360\356\243\274%\207\324\276\027\212\227\275\335X\376\276\347\253\216\276\346\324\347\2742&n\276\233\217\213>\257\237\234>\033\326\200\276\006o\030>ZE\305\276\355\271}<U\222\242\276!\267i\276\230\203A=;m\273\276~\347.>\r\360l>\025\362\031\276\241/\331=b\035\246\276\331a\240\275\010\177A\276\365\206g\276\217\207D=}=\326\276\177\235R>\346\211\242=n\245\t\276 \273U>\020]\'\276n\\\215\276\340\362\364\275\375\316 \276*\357\351=\260\343\244\276\\\tQ>\027O\307\275}\222\310\275\217O\201=\023D\345<[e\231\276..\261<\256\363p\275 E,>\370\002\344\275\271\247\214=Y\256\001\276g\257\006<\213\313;\274M\367\371<; \212\276\263I\342=\243S\016\275\360Zo>#\225\216\275\007\264\000>\266^i\276\313\001\342\275\027\326X\276v\3228>\301\307\240\276u\251W>}!\215\275s\353*>\303\335\253\275\002\210\277=}>\305\276\024):\276\235q\210\276\305p\203>\223}\273\276\0177\027>\377\025\007\2755Ti=\235+\335\273;\235\">\236,\227\276\345\217\307\275\302\025\211\2765\335\226>\247re\276\026\026#>\347\224\336\274\030.\216\276\356\253\333=3\213\216>q\372\340\276\230E\235\274R\224p\276\026Z\231>\343,\367\274\031q@>\272\240\037\276P\210\317\276\362\200\231>|\331\005>\221t\206\276h\321\017>\354\336~\275\323QA=k(\233=\337Bb<z;\002\276\313\236\260\276r\341\215>{\006+>\177u\177\276\205w\205>\227\253\344<i\353\267=]\364\305=\264\016%\276\035\272#=x\333\027\276\232\236\355<\032|\366<\236\0144<z\247?>G\366\037\275R\253}=\255P1\2752(\252\275[\231\335;\217G\366\274\030M\233\276\224\207\210<(\266\027>\361k\351=\212D\006;\253!\210=\307<\177\275y\2470\275\356\231\376\274\320\330V\273\362c\\\276\250\257\027>\024U\375=6\216\014\273K\213\322=\"A\345=\214\010\254\275\353\323\252\275\270\234\273\275\211\r_=@2H\276\2245A=9\230X>\2575\264\275;\315);V\251!>\n\375{\275\201\343\310\2754\266\316\275\322\274;\275?\034:\276y\263\210=|6\360=q\206\314\275\314!\236=\006\032$=\317#\273\275r\245\226\275\375\360T\275\203\251Y\274\352\200\201\275\246oR=\265\325@>\242\257\t\276\351Z\303=qJf<6\372$\276\211\255j\275\360\266\017\276\227\007\022<\215D\202\275\307\0227>\273-)>\327w\307\275u\267\317=k\265\272<y\355\016\276\037\354\311\275Q\3429\276\r\223\023\273(\302-\276\347pW>\234\263m>\032\200\222\276\273`9\274c\321e;}\234@\276\230E\363\275\255,\177\276\231Fa\274\004\177:\276\323~_>\213\223g=\037\030\200\276\321f\337=\264\212d\275\277`\202\276<\245\030=\224\361\261\276/\204\353\275\302\220h\275;\231\261>b\007\222\276K\272u\276\312\222\006>e/\315\275z\"\207\276\000\320\030\276?A\311\276s\331*\276x_\033\2768:\334>\244\335\356\2766[\311\276,@\230\276Y\237\257\275q\264\203\276\361\301\007\277r\343\220\276t\215\262\2754\216R\274\346\256N>@Bj\276\336\200\253\275y\317q\276 hw\276$[<<\036<-\276\204\333m\276\262vk\276\017M\231=7\034`>\013\2505\276\026\027\370\273S\2515\276_W\233\275Z\322\214\274\322^\307\275\336\241\272\275b\t#\275\303\272\243=\335B\014\276O\201\336\275\263\301\232<\231\235\212=\235|\205\275\324\344\206\275\007\310\302\275\001,O=\252\225\276=\376d&=C\276\237\274v\034\227\275sU#\276\207t\344\275K\245\016\276\351\031O=L\n\003\276\010\2054\2761\231\241\275\342\006\201\275\233\230\250\275`#\024>\354\352\032\275\206a\202=\337\347P\275.:y=\005\263#\276\367n\261\2766\002\227\276\233j!\276\006\366\330\275U\243\250>\221\276\024\276^<\277\275v\004b\276F\371V\275\266c\324\276\3522\243\276\035i\327\275\025P\256\276k\250\367=\230Qv>\374.\010\276\010J3=\306E\304\276\235~\367\275\035\025s\276\216[\232\276\334\220\230=\345\237\311\276H%\273=\207\001\221>5\372=\276\310.\375=?6\177\276\341\3454\276\302Bi\275\242\342T\276\024\r\252=\034\242e\276|;8>@d\371=\0307\t\276X\211->U\321+\276\333\237\226\276\344\003I=\"\270J\276#\260\210\274Z\243r\276C\0023>\250\020Q=)\313\235\276\352\304\'>vK\324\274V\265\237\276%\372\311\273\314\252\034\276\212\367\373=\306\232\335\274=,i>\025\331\230\275t\205Z\276n\246\360=\237\360W=\240i\236\276\336\240\354=U\355%\276,;H>\\dE;BC?>v=\201\275\313\221\257\276\246\000\265=\202\007@>\303\271b\276\231\241\357=\026:\204\276\346\016\204>zV\007\275\300i:>\307/\207\276w\245\267\276\227oN\274\314&5>\021\357\200\276XTT==vY\276\377\316\261=\244H\253\274\237Xp>\'\302V\276i\324\246\276\303,k\275nQ\226>\313\005,\276;\352\356<k`e\276b\3419=\211(\346=M\004.>\255m|\276#\237\'\276tD\177=\220\003\224>\316\372\315\274\001<\264\275D\373\210\276\237\277\344\275\034\363\354=\204\263\272=\277\224\206\276\000\252\314\275\252:A\275\017\345+>\324\340v=N\327\021\276\374\245\337\275\025I\034\276_)+>\342\241\346={\272\030\276fW\333<;8\n<\013\274\316=\2170\032=\247T\353\275H\357F\275&\334\203\275\347z\302\275\270\246\213=Sx[\275\304\327\257=h.\251=*I\354=\316\013\303\275\370i\222\275\355\360\033\275\222\273\210\275&z\335\274\346Q\010>bP}=%\026\307<\021\316\025\275\247\330M>U\212\363\275+\021\232\275\322\034\202<\362m\316\275\016\365Y\274\257\225H\274r\005\030>C\264\035\276Hu\273\274A\300\265==\335k\276R \343\275\004\370)\276\343\314B\275\200\217\300\274\267\216\350=\306\031E>\032k\227\275\325L\007>\312\306:=@~\\\276\260#\035=X\317\325\275\332\252\"\275\373\347\217\274\030\244\201<C?\363=\257\243\336\275\032\177\312=\3202\351=W|>\276\302dA;\032%\262\274\244[\t\274\226\\\244\275\253oK=\245\264\271=\342-P\276\210\300.=\031\277\302=C\232/\276\312\004\234;|\007\313\275\034\350\270=\234\242\211\2755|\273={\346\345=\025~\007\276\336\326\314=@\345v=S\326\230\276q\014\213\275x\026,\276k\340\022=\3651\234\274\030\247\364=nE\351;\031Z\206\276\342\222\000>\315@\234\2747\241\307\276&\344\312=}0i\276\331q\306\2751\270\022\275[\302D>k\317\351<\024\306\225\276\264\210\004>\022\220v\275\265\356\317\276\273\252t<\256,\221\276W~6\275\201\302\n\275(^=>\017E\200\276\032Y\301\276\023!\360=\322yd\276\023\235q\276\'\227\204\275:\227\211\276\330?e\276G\274y=A\323\315>\345\265\367\276\213\315\327\276\213\346E\276\367T\211\276}\217\205\276\333\307\000\277\255\000R\276G\331\363\275\237+)\274\014\345@>v\326{\276\252y\366\2756*\r\276\022\303^\276\2370\207\275.\023\211\276f\253\003\276\312\352\243\275K\255\035>\235G\245=\264\365\027\275\240\215\377\275\226\251\266\275\230\271;\276\221\233\201\275\014\021!\276\016\2245\276\300\262\235;]\260\252\275<\326A\275_X\213\275\330\314\237\274\020\013\356<\250(\303\274>\270.=\236H\210\275rTs=\025\332\030=l\252\301\275\022\330\274\274\r\021\025\274b}s\275\225\2427=\210\020\312\2758[l=^Cb\275E\t0\276xx\357\275e\372\334\275\3046.<\326\257F=w\371\301\274\000W\346\274\006.\005\276\202\004L\276\377\366^\276\263s\201\276&bK\276s5\272\275\237$\354\273\331\275\256>\256L\350\275\351\345L=0\304i\276\320\211\202\276\024\006\333\276\250)\266\276\365\017\221\274l\267I\276\2111\371=\335\022\">\201\240b\276\312\343U=V!\264\276\372\350\246\276\002a\002\276)\263\201\276\262u+=\'\262\251\276|}\201=9\3144>\337R\243\276\321\367\265=m:\250\276CA\260\276\373T\231\274v\")\276qF\026\275\331=\307\274|\002S>\021\221]>\232\221\261\276F\2051>_\030\230\276\365\307\313\276\017U\237\273\212xK\276|\317\227=\242\362\025\275p!\025>\272\220\271=\351i\243\276ik\004>\351\010P\276\245\243\262\276\301\375U=\262n\033\276t\352\325=\357\354\006\275l[\010>\033\277\361=\037$\276\276\317\261)>g>\314\273\335\036\211\276\221\334$=\006AT\276\037\362\204=Z\334w<S\3651>\305\017\307=\343\343\301\276V\203y>\367\004]<U^o\276\022*\256:jqz\276p\257\207>\004\253\276=\234\n\371=\315\001\343\275\365\215\232\276\033S\220=7\311\224>Y\275$\276\025\331\217\275\010@\210\276\021\213\226>=\253\210=\331b\317=\027r\323\275\004E\217\276p\013\006>t\251T>\257\253#\276B\235\360\275\014\257\260\276P,\232=\300[\254=\322\357\000>\336!t\276\314\016_\276\014\335D<\302-R>Os\"=N)M\275\031\207\224\276\006s\365=|\207\004\274\004\246\306\273:\342\t\276\3423\021\276\035\3727\274O\t\203>\\\353\005\275\234)\275\2758\237b\276Z\203\r\275\001\301?=\351.\266=r\3540=\234E\311\274 \2558\275\251^f>\266\007I;]\"\247\275\020\343\245\275\233\311\230<\260sp\275q\236>\275\022\363W=\026\253\224\275\230\320,\273\255\003@>\375\323Z\275\364&\200\275\003%+\276\270\201\010=\017\244j<\255\334\221=.a%>\333Z\250\275\3244\374=\207\300\344=\345\341\003\276\2222\007\276`s#\276\034\342\021\271\325\224\212=\345^\237\274\304\0275>Bk%\275\206V\207=\360\321;>\2758t\276\207\026\216\275#\356\364\275\302\350\020\275\237.\373=\305\243+>\334E\035>?\2510\276\356\364\275<\362\016\237=\033\t\217\2769\235\235\275\364\225\377\275T\006\000\276\306\021\310=Y\261\352=B\326G>\350k\'\276\025U\t=]\243\316=<N\227\276s\357k<\037~\232\275\037\000\362\275d\027K<\177\253\002>\267\371\033>\020\202\351\275\360\201\250<\353\237\312\273\001\314\336\276\036\350\026\275\264\037\226\275\r\206\235\275\212\316\275<H\301\t>\377\350\010>\307\014\014\276\005\025\300=f\216]\275\365\317\305\276\034Q\267=n\032!\276\253j\302<-ET\275]\231c>\241\016\335\273\201\302\232\276\237\252a>w3\353\275\037G\313\276\254\302\256=t\020r\276\365;\234\275\004\237!\276\340\374h>\315/(\276\356P\251\276\326v\345=\036\314\265\275\265e\246\276\325o|\274\257\234a\276j\020m\276\2030\224\275\360]F>\310\344\221\276\325]R\2767\271\r\274K\246K\276\241\037w\276M\211j\276\231bt<\203\323>\276q\313I=\324\341\234>!E\225\276\260~Y\276\261\244\367<;\332~\276\'\000\223\276m\336\337\276\223\261\263=\026A\225\275UfV=\334J\304=\245N\024\276o\232;\275I\303\026\276\242\354\t\276N\337\224\275^<u\276\341\261\266\275\177\330\273\274\256P\344<\251\314\242\275\352\205l\274\243=\034=>\336\204=\300\214J\275\277k\276\275\213\376\350\275e\024\221\275U\254S\275\203\017\224=\2645\326\273r6\313;\\g#<\203v_=\tXy\275\323w)=\330#\344\275\205\241\237\275\373\n\344\274\001\234\240=\345\323\035\275\224\267\215=\357\312\265\2755e3\275\272>\253\272\210w\252\275;\263\305\275Iy\'=J\241\020\275\026\003\213\275<\033\351<*I\221=\365d\240;\363[\231\275\240\243h\275\3737\022\276#\212&\276|\354s\276\326\032\237\275M\340l\275k\367\271\273\265\013\203>2\355!\276\347l\277\275\302D\217\276\023\261\244\276\243\361\332\276\376x\271\276\343\275/\276(\354x=\021\0365>eG\212>\256p\210\276(\212B=~\354\263\276\315\265\202\276\267\327\006\276\301\205\r\276rb&<\211Uu=5\023\201=\036\304\006>\372\260b\276\307_>=\262R\316\276\237\032?\276\200A\004<\033S\202\275\206\247\220<#\303\257\272\257p\225=\010\3524>\017\265\231\2768\036\257\2748\241\301\276\314\261h\276\220\244L=F\305\004\276\377\013\177=\322O\377=k\340\215=\265\233%>\256p\240\276\261\265\225=\214\177B\276\234\035\360\275.O\223=o\\Y\276\010\016C=E\203U=a\317\362=\227\210\304=\226\263\210\276\365\025y=pR\304\275-\304\267\275\323\266\020\2750=U\276\022\334\010=\325\233\262<T\200\\>\033\361\206=g\251\212\276\026\304\334=\222\246\355\275\nl\315\275w\3742=\364T#\276\220\027$>f\300\360<i=\036>\374\223y\274\216\211{\276\"\305\206=H\267\177=#\254U\275\241\332\235<\n\024Z\276 VX>aC\251\275\234\232>>B,\322\275\220\336?\276IY\273=-\000Y>\230-\006\276\342!g\275\233@\222\276\353\374\324=\344\350\301\275\261)[<\352fO\275\372\265,\276\024\367m=\006\325\250>}$\022\275\314\026\037\274/t3\276V\236\237=(:H\276er\274\274\206\274\310\275y\372z\276\371\232\260=\036 \275>\323\262,=M\227>\274\341\013\310\275\316JY=\230 \260\275\275\371\270\274G\3410<\260~\321\275D?\323\274/.\275>\034df\272!~\334<\342\006 \276H\375P=\363\023\000\275\220d\240\2759\247\324\274\251W\323;\327t\'=\317\360)>\'LW\276\236\227\275\274hI\022\276{\331\342\275of\214=\255\014\225<\343\020\030\274\366\201~\275\237\224<=5\340O>$\233\023\276\343&\211\274\017\273\032\276\024t\327\274\323n\266=\317\007\030>\037\357\023>|\371\014\274\220\250\236=\265\222 >\r*`\276x\214\203<\017\372&\276f3\236\274\222\013\030>\216R6>{\255\307=L\365\326:\250\001\353=\377I(>REV\276r\203\177=\034}\335\2757`\350\2754d/\274\344\207^>\266G`>\272F\334\274\316 \344<\311\325)<\237\361q\276\213(M=-\312\340\275vQ\034<\301-\320=\271L\275=-\342\302<\005\364\031\274X\227\004=\216\222\376<Sn\332\276c\371\200=\245\256)\276\237\033\'\275Se\304\273h\3763>\272\363\272\275\315\370\027\274?\332\326=\336\366\033\276\220\000\275\276-\217\235\274\345\312\000\2768i\364\275j\265g\276\266\256J>\246\224\240\275L\253\367\275T\272)>\313\305\343\275m\335\374\276\374\223\342\272\247\265\207\275\310\234,\276_?2\276>\013?>9\000\r\276aU!\276r\335\215=\223\024\017\276E\255\354\276JtF\275.\371\316;\356\177M\276\374\255\262<\261\370\'>\301\002\224\276\233\306\277\275(<\364\274>D\036\276\246J<\276l\362\214\276:^\211<;\304\017\276\020\002S\275\200PB>E\355`\276y\276!\276\346\365\316<\360*\365\275\341\241L\275S\\\210\276\3267\355<L\336\021>\261\231\036\276\354O\001>\305\t\267\275\256\r\240\275\325\374P\273\230\007\315\275\353T\223\275\333\001\224\276\"L\014\276\264\240\225=\\\315\206\275\214\2403=\033\233\204\275X$U\273\2056\007=\271\r\307\275\353\323\240\275?\007\200=[\332>\274\026O\315\274D\224\371=&9_\275\310F\n\275\322\3317\274\364!\213=x\360\305\274\236m\303\275bks\275K\221\036<Vy\207=\330<z\273\217\265\'\275\247\034\216\275XHy=R\236\206\275g\224G=hS\243\274{K\030<W\006\207=3\203\000\276\031D$\276Xw\224\274\240m6>\022\213\260\274\364\373\347\275\344F\215<!\310\320\275;0\377\275t\352\325\275;\177u\276Te2\274\023\343\241=\267xW>\207\274\017\276;\243\024\275o\250\344\275\244\352q\276:8\216\276\332\017\035\276\350\014\224\276<{\000>\264}\254=.\016/>\024\217\252\276Yp!=\251:\325\276\245\275m\276\017\373\220\276\200\324\276\275O6\251\275\223\300\263>_\361\021<N\271\036=\004\267\217\276k\006\007\276\3225\352\276\353\024\332\275\302\204*\276\335\354\007\276K\3024=\234\260P>\200pP>\230\2357>J\375\270\276\256\210\241\275\311\355\337\276v;\316\273\222\033\231\273cM0\276\357\202\010>\220\354\010>K%o>\241\260_=h\301{\276\271\234\206\275E\010}\276\031:*\273J\226\277=\235\023!\276N\037\2779\221\351\210=dh*>\313 \300=\n\247R\276nN\320<\000!\016\276\253\000\243\275\374\326)=\014\257\007\276\006\362\323=D\217\301\274\326\017\367=\325\373\016\274H\222+\276\360v\216=\230,\013\276\320\332\306\275\243\274\241\275\003\234\300\275\250#\016>\t\n\304\275\361=\243=\254(\334\273@\017\001\276l\313\212<\010>\325\274u\031\277\275-a\213<\242\227\t\275^qt>\036&z\276\230]\377=@\271W=\337R&\276\010\360\250=\367%e\275#t5\275#\344\022=\277\204\374\275\246\263\001>9\n\243\276\027\264w\275\\&\024\275y`8\276\341\'\036>\341\340D\275\253\242\317\275\0335\276=\376\214\210\2756\213\025>\036+W\276%\3268\274\031\324\2209+\342\326\275}}\224=\320pF<\311h\023\276:mP>\316\266\n\276\251l\367=\360\245\010;>\255\272\275&z%\274A\272K\276p\370\363=\325\303)<T;O\275\333q\274=Jv\274\275~\276\303=\234\302\002\273\353g\031\275\226\352\304<\005\002s\275\347\331\200=\361\325\035\274\345\320k\275g\273\216<\r-\210\275\365)\037=u\232!>\277M\326\274\013R\275=9q\361\274af >d.\250<?\273\262\275\t\0327=\006\310\274\275G\001\213\275\252_}>\026\343\204<ELD=,\221\033\273z\001!=\303\310\340\274\026\307\020\2762(A=\323s\022\276\000Dq\275\274\213\270=\347\036M>\376pz=\337!\222=\241\270\314=\220a\315\275v*n\276\247\257\276<\n\003P\276\375\354P\275\245\327\210;HZ->\351\3544=\220G\235= %\312=\277\355\343\274\334\361\270\276\354\263\005=\016DE\276\301e\211\275\364\247\371\274\200ZJ>\000b\235=\303\017\025=\264\252\373=M\376\325\275(\322\224\276<\3771<\2617\310\275\205H\337\275\310\337J\275\235wc=\367\231\335\275\250\323\307<\343\374(=G\261\215\275\001-\312\276\237\256\252\274\240\220\333\275#\366/\275\325k2\276.\345Z>\243\025\017\2768\027~\275Q\211\360=\201\3409\276\227n\332\276\366\273\300=\021\230\027\275)\272}\275\272\374V\276\335\004\302=g\240\r\276\260(c\275\232\306>>\235\273\237\276~n\262\276\316\312\351\274(F\001>\304zF\276\370\327_\275\261\276v>\322\277\240\276d\324\024\275S\373\354=\347\324\206\276Og~\276\262\034<\276-\331\375=#\213\'\275\373\014\256=X[\263=\301\220i\276\272\353-\276\365\t\320\274\217Y\000\276\346t\352\275\033uN\276\207\357\013\275\323\032\356=>\254\260=o\312-\275\241`:=\340\224\027=2A\n>}\231\200<\221\036-\276\350w/\276k\270\003\276\252P\277<]&k=\207\025Y\275\016\3532\275g\\o\275\255\307\327\274:\201\036=\314\002\353;\177\375\014=\026o\345;\316\014\204\275\000n_:\330\020i<\340\213\264\274\242\027\026\275\000\212\002\274r\t\205\275b\253y\275oR\021\275\020n\246\274j>\037=\270\024\267\274h\367R<\320\365\026\274H9h<,\345\366\274\323\2752\275\253\357&\275\t &\275N#\017\275t\346\305\275\323\303\211\273\260\035\226\275y\261\005>T\004\272<Z\233\365\275=\\\014\2753qU\276\204{\t\276\371.v\276\263Z\227\276\261\221\203\276\335W\025\276z\274\223>\371Qb\276oW\354<\205.\256\275,\350{\276pN*\276R)]\275\217\210\215\276\213}\310\275~~\251\274\201,G>\n\247S\2768<\251<\r\2750\276MN\007\274G2\250\276\004\003B\276\023\222]\276\334\227\210>w\306\255\275\377\257=>G+\236\276\241\265\177:\025\035\252\276\3674\004>\036\203\335\276\307gE\276B\'\275;$\177V>\210\0064\275\016\tO>\203\312\213\276a#\365\274\261\221\262\276\353\224q>\247\033\236\2769\356/\276Tb6=\304K\244=\344x\266\274\313\337U>\225c\331\275\256Tk\275\373\335\305\276?\t\022>\222\255\350\275\241\t\357\275OI\323=X>A=]\203\346\274x\032u=\371\213\346\275\352\237\273=d\221\255\276\373\263\320\274\315E1\275M\220T=\321%o=\2153\264=\323n\241=#\313r=\316\205\376\275Q\021N=)B\236\276\364\327-\275\335\373\027=\323\343E\275\2248U>?\210\030\276\000\251G\274\220\216\363=\\\3041\275\003\224M>E\366R\276\361\370Z\275B\023\204=\316-B\275\305\242R>\n\224\377\275jZ\020\275\036\317\341=\313\026z\275,\230\251=uA\205\276\202~]\275y\007:=\242\007I\274\341\223y> \330\t\276\013\270\004\275v\351Q\274\362\215.\276~c\362=\222WA\276w\263\266\275exw>@\004\252\275\260\220\203>H\224P\276\000B\362\274\200F\036=\226=\362\275\316\257\350=Z\036\t\276\034\007\264\275>\202\217>\021\274\330\2759D\037>r\006\253\275\232I;\276)v\360:\343\340\021\276\233\302\357=,y3\276vv\005=\034\311\n>\t\000\020\276&\213\016>\3741\003=\304\340\260\275\201\004F=\305_\253\274\301>\007<g\251 \276\352\265\255=e\021L>#e\031\276\341\261D\275j\032\205>\006\374\226\275\210\310\226\275AO\244\274k8\334=O\240\346\275\000\224\275\275\222\022\037>\014\017\344\275\353d\224=\205O3>\3307\211\274\336\262\237=|\307\037>\333\203c=\324O\331\275-\303\247\275sq\245=\274\242\201\275\203\030\377\275\252\024!>\r>\035=\215\264\306=\204\265\013>*J\361\273\372\335\362\275o\n\023\276\326\340#=\271 E\275w\020z\276D\021B=U\371S>\"\204j\273\307\334\002>N\303\r\274d\021G\276\315\216}\276\212\233\207<\211\374\025\275P_z\2767B2\275\233\214\351=\302=\031\276\257|\325=p_\323=\002\322\324\275\025\n\325\276\377\007\304<\362\212\266<\033\303^\276\370\202X\276bi\025>\037z5\2768G!>D\016\365<x\346q\276\376\361\271\276&j\026=\010A=>G\251y\276U\242\342\275g\316M>\364\261+\276\237\1777=\031\247\265\275\004\234\206\276\375\032\264\276\314\227\030\275jUn>>\263\325\275\030\032\262\276\347\344C>\240\004\200\276:\261\032\276 H\">t\220\203\276\202\314\364\276\241+\002\275]\322\032><\331\366\275g\377\312\275e\233\277=\377mA\276\347\014\240\275\224\025,=\304f\217\276\t`\342\275E\361\354\275D\213\035=\330\374\007\276\2102\210=\177\3427=\"8+\276@\2773=\237\315\'\2752\n\205\275\005\277\r\276\350\224B\276\353\2167\275\344\002\306\275b\245\007>Y\300\025;\225\310\214\274{e\334=\250O\202\273\311\n\000\275\324\341\260\275\004\353\016\276\375nN\276.\032\372\274\214[\224\275\272\215\247\275(A\343<N#\035\275=\324\021\2753{\210=\010s(<\n\336\356\27438\236=G\325j\275\260NS<\370\321\000\274\335\326\027\275$J\242\275\332r\364\274\323g\031\275\355,\243\275\2120i\275B\0067= l\277<0\346\216;\032\231Q=\004u\240<6Zx=\307\311f\275\200j\317:\"?\210\275\222=\207\275 \240p\273\2611\026\276\026\037\327\272&\376o\275\022\201^=\276\337\\\275\317\254\031\276\256\355\t=U\260\343\275B\257\356\275\023\315\245\275\177\255\026\276\276eD\276\350/y\276\017BD>s[\255\274s{r=?\375\342\275<\233\353<\2477@\276\203\313\227\276\361\355\026\276\224\336^\276\036\204\244\276\252\230\230>[_\245\276\314e\231\275jT\302\274\204\204t>=H\263\276Q\232\310\275TA\004\276\240\277\222\272\220[\262\276\355*\234>uI+\276tB\354\274Q{\224\275x\307z>\3479\333\276\362\340\004>\231\016F\276b\371%=\322\254\246\276,#_>\326\256x\275\351\305\204\273\374\217\223\276^\256\211>\n\323\275\276\222\266v<IMW\2763\353\200\275C2\204\276T\327\252>*\355\223\275\352-\302\275j-_\276\275]\223>\326DE\276C9\320={\3755\276x\005\200\276\034\215p\276n\2026>\262\253\377\275*\302\371<\031\221\247\276\360!Y>\017\335\201\275m\361r=\366\236\034\276\337AJ\276\242\335W\276>i\026>\3433\007\2765\036\377<\340\357\201\276\001\250\360=\207\342\206\275\245\356\300<\321\372\251\274\245\263\177\276\342`\202\276\202\036k>V\034\256\275\232<\366=Y\014\204\276>I\020>\263\023\254\275k\376\020=\276D\375;\257\202\241\276\306>L\276\273\\\">\353W\255\275\243S1=Pz\200\2761\356\306=\270V\272=\203\376\244\275\365z\346<\2224\231\276C\350\272\275\233\216\022>E\2111\276Q\337E>\245\333\\\276\230!*=[a\236=\203\300h\275\t\244\007\274\021\224a\276e/F\275.%/>\332~\250\275\200\034\017>7\203a\276?\317<>\314\026\312=\020o\367\274e\373\311=P\257k\276Fzx;\341\356\341=\313\026\250\275\353\256J>\312\367\224\276\024\307\326=Sg\262=Q\327\361\2754LM\275`\351!\276\2337\310\275\374|\275=:\206\370\275\345\371\265=\224\222i\276\276\315\260<\0149\020>b\342\225\275I\325\007\276\241\362W\276\204\352\001\276c\370\n>\334\013,\275\323&\344;\302\274\241\276\031\377\210=n\345m>\004\365\003=\271\240^\276\320\"\207\275w\300\023\274\273v\032\275\374\2656\275\360\270\232<\247\035]\276\035I\237<\346&\211<\320\334\363<\324\241\221\276\335\375\014\275\326\016\313\273i\n.\275i>a\275\316;\237<\341\351]\276\2677\274\275.g\227=l\216y=\327\246\270\2763K\210=\365\301\376\274\276\241\003\276y#\226=\231\2243\275\244I\230\2765~\006\276\340\225\203>\337\253\356=\273\324\245\276\2066\375:\260\305\306\275\237\276\030\276\246\t\341\274#\334,=!#\270\276\215\353*\276\001\356\266=\022\0373>q\300\307\276_L\000\276S\324\021\274\241\210+\276\357\227l\275%rN\275\242\022\275\276\361\343\031\276\305E0\275#\200\200>\316{\260\276Ge\\\276-\200!=!\312\030\276\252\370\002\275\225*\003>\260m\265\276\200:O\276\271\0247\276X\301\207>\364]K\276{\202\t\276\023\\%\274Eh\307\275px&\274\370\360\217\274\204\306P\276\2624\337\276\345\321\302\275QC\204>\211h\'\276Sq6\276\226\345\r>\264\317\r\276\375X1\276.o\033>\031\322\331\275\314\361\244\276KXu\276\377!\211\275\343\266\317<c\274\367=zzG>\336@\253\275\350\0063=j\243\027\2762\372\374<\367\261\260\275\366\227\201\276\265V*\276L\220\244\272\305d\354=\232N\025>\341\307w\275\271Q\264\274\334\306a\275t\333\034=\243\364-\274\211LN\276\000o#\276~G\225\275\340z^;\200w\332:t\341\362\274:\313O=o\333\205=a\317\235=\375\204\242=\313f\214=\002\323F=~\320X=\306\301\252\275:a6=\324~q\275P\2511<\222~|\275\006\213\216\275\262\372\026=\316\343\345\274LA\222\274V\253==X\207\t\275BER=+\024\"\275NcP=\364D\245\275\034P\317< \204\246\273\252\355\260\275h\203\373<\023\253\005\276\327\025\227<EPy\275\325\331\353=]=\333\274\361^\247;0\017\004\275\277\344%\276\370\372\241\274n\350\260=\231\217\017\276\324\010Z\276\267\355b\276\261\214\363\275\354@p<S\322\305=\260\216\237\2733j\324=\007\271\r\276\224\332\221\276\211[\034\276Jtt\276\000\305\237\276$\016\013=h\025Z<\302\202\316=k+\365\274\356\207\004>\304\210\274\276\036\246\223\275m\343e\276\370\214\316\276\336\212\341\276\001\3618>&\210\200\276\2465>\275\277\351\250\275\326\237F>P\203\000\277\345u`>V\372\310\276#c\315\276r^\223\276\0100\031>\002\217\203\276\207q\275\275K|a\276^\252\014>\244\245}\2769\rf>\363\352\243\276Z\"\340\276\315>\253\276\361\261\223>#\227\234\276\275\276\302\275grC\276\330\222\005>u\213\313\276\300\203#>)\337\322\276\223\273\311\276$\207\005\2772\311\270>\224\203\240\276J(\036<\241\017+\276\\4\203>\\y\277\276S\372\001>d\032\331\276c\270\330\276\034\237\336\276\302k\250>\035\317T\276h\305\254=\246\326k\276\022\273\210>\353\000\201\276\027\306\020>\375\340\311\276\030\330\003\277Sy\330\276\201X\263>\201q\224\276ra\270\274\027>>\276\2532\376=Zbo\276\245\310\005>?\341\330\276\257\240\002\277%M\313\276\241#\271>\230\272\271\276\0037\037>x\013\005\2763|S>\373\273\t\276R\354\275=\tw\371\276Q\312\273\276\260\225z\276\375\247\260>\007\217\314\276\257N\305=%\207e\276\372\355<>\"\266u\276\204\354\025=\326\312\336\276w\277\370\2767G\213\276\014\034\240>\232\375\214\276\266N0>\327G\234\276\2015\016>\031\221\037\276\321K0>\310\023\007\277\351$\352\276L\272J\276\266\033\t>\265\256\255\276\002\317\205=V\014\263\276\3557(>\2308\232\272\337\261\210=\262\013\010\277\341\013\332\276w\320\032\276\237,Q=\021\231\253\276m\200E=\007\267\277\276\333\332\204>\177\223\316\273\211\000h=X\364\276\276|\332\003\277\332\252\362\275\225Hk\275\377U\307\276\206\000\021>\373\376\214\276m\205S>\337|e\275\003\337\026>\306\254\325\2764H\252\276II\375\275\254\333\213\274\225\376\265\276\261!\340=\367\213\236\276\r\216B>:\\<\275\002NT><\325\303\2761\246\260\276k5 \276@c\016\275r\001\320\276ZUq=\\\367`\276pD\305=\232\214\014\275<k\211>I?\350\276qu\223\276\211\266\204\276\244\021\274=\226\360\242\276(\225\342<P\030\242\276\220l\265=\2052\312<b\337b>\205\223\262\276\004\334\002\276\3503\236\276\036\315\275\275v9\214\276\021\331E\273\202\265\215\276\321{$\276+1\'\2760\252\261>\273\027\251\276=\255\344\275\311\031q\276\234aX\276\200\n\262\276\214\225\254\274\230\333a\276%\344\235\275S\316\256\276H\211d>\276\001\236\276\033.>\276?C{\276\234\377\362\275\253rN\276\322!J>\320\325\232\275u\014\310\275jx\337\276\235|\036>p\205j\276\343\266%\276\266Qc\276\255\0043\276\366w\270\275!\'M>Q\006\353\275x\226\204\2767\367\202\275.\305\022>\027R\237\275\023>\205\275\233^N\276x\202\350\275\010,\035\276I\233d>\235\312\362\275}h\";k8o\276\330\372R=0\353\031\275Omp\275\3074\2239\r\001\312\275\247\rx\274\251h\030\275\0352+=N\232\n\276\277A@\276\2029\310\275+\254\242<\003\346`\274\374\257\267=\264\362\325<:9&=3\251\231=?c\237\275\226-\321\274w>\236\274J\303\272\275\320\3613\275\025\005\220=\022Q7=\000d\373\272\334\245\020=\201.\210=>\027t=\357\224]\275\221\374_\275\237S\211=\235\022\210=h\354\035<gj\255=\240\375\206\273L\207\367<0\003s<\340\005\247\274\360N\327\274Bk\004=a\211\261=I\000\262\275\030t\316<*\007m\2752\034\222\275u#\230=T\251\351\274\n^\004=\345\314\212=\\F\306<\026Ij=\345\207\237\275@\367\206\272\356Xq=VNC\275\375 \212=`\263\027\275`\201v\273\210W\217\274\204\253o\2759\017\214=\312B\241\275s \226\275\307\002\331\275P\004\035\274R\224l\274l\023\306<\rF\300\275\013\316\373\275P\024\257\274j\014\342=\000\006\267\275h\030\204\275r\275\240\275\037\022:\276\344\323\277\275\220\005f\276Y\250\002\276\"\343\200\275\205\316V\276\275\350&>\006XX\276 !]\276\210O/\276\277\225h<F/\340\275y\341X\276[\201F\275UPQ\275\330\216Z\276\002\332\223>\266\177\\\276\370\017v\276\3628\310\275\267/\376<\267F\342\275?\2009\276d\'\253\275\34521=\353Ls\276\345\005\215>\241v\200\276.[Q\276h\016&\276\352\020D=\270%\276\276\302<\227\276\226I\231\274\222\322\377=YI\'\276H\254\231>\222\014\246\276\251\020X\276Pu\342\275\343\\x\274\301\321\312\2760\227~\276\237\320\237\275 2\004>f\240\013\276\232\2032>\016\267\321\276\207\275\237\276\321\330F\276\324PD\275\031\271\351\276\204\311\301\275.\"\342\275\301\267L>g\336Y\276\232\371\232>`\366\252\276 |k\276b\266e\276\027\261\273\275\356\372\002\277K\333\035\276(z\222\275\266\021+>7\020\256\276.m\361=\025\246\260\276Q{\234\276N`L\276SJ\301\275\002t\001\277xd\2519\t\260V\2766>\006>k\222\240\276\032\363f>\215:z\276\201\341\271\276b\360]\276NoL\276\342\274\036\277\250\026\354\274)\335\367\275\221\2058>\021\033\234\276\322\305W>\237\252\200\276\210\261\327\276Gwb\276r\345~\275-p\023\277\034m\023\276Q|=\276\301|\214>\036;\202\276\227\241\204>_\272\330\276\265\331\353\276\303\371\014\276\240\007:\276U\317$\2771D\254\275\375\376\'\276o\361F>\334]\273\276\370\237\277>>1\261\276\332KO\276\2012\220\276\216I\023\276Yj\025\277l\203\031=\023\336\'\276\214-\250>\177n\355\276b\267w>z\232a\276V\211\210\276=\337\254\276;w\372\274\262\330-\2778\364\250\275Lp0\276`\227m>\033\246\350\276\206\250+>I\030q\276\325H`\276+\206\217\276\240\266E\273\216\323\021\277\343\017\200\2756\305O\276E\250\232>e\212\251\276\316#E>\201\022\224\276F\007U\276\272S\217\276\367\262\221\275\322\022\034\277{\317\345\275I&6\276\216\025Y>\300\332\236\276\r2\000>|\304x\276\314(9\2761O\243\276\n\007\365<9\211\340\276\376\377Z\276\334\237\215\275ESL>^e\327\276\235_u>]\3463\276&\000\272\275z\247%\276WSD\275\241P\336\276\260\305m\274\354\264\365\275\3274B\275&)\300\276z\245X>\014\321\254\276\233L \276\321\016\204\276\"\236\273\273\003\303\301\276\2739\201\275\373\377\310\275\301A\016>\206\352f\276 \366Z>\016\371\234\275^\323\005\276\001{;\276lV\225\275\335@\240\276\214A\347\274\177\316\033\276\350\305%>\273\203(\276\252\331\366<A/\021\275\216M\366\275o\007{:\345!\370\275\246\374\'\275\325\325h\275\037\207\231\275\007E\'==ND=h\3356=b\021\270\273\241\251\212\2740C\254\275s9Y<U\240C\275\274\'\017\276\357\272\233<3\246\307\272\303+[;\316A\006>2\024e=@\177\304\275\314m\205=\376\037\225=\257\310|=\342l\221\275P\350\t=z\214\234\273Z\347\026\274\305]\"\275\263\004\250\275x\267\310<Hy\337<\212t\327\274\266\252\202\275\205\027*\275pF\201;\272\234\014=\014\357\360<p\337\252\274N\224\371\274)|\000\275\235\303\030\2750{\372<\276\341Q=\002\367j\275\004/\316<\330\203Z<b.\362\274&\311\316\274lS\327<\366\234y=.\322]=doJ\275KJ\260\275\364q\023=6+i=\356\315\005=\242\271\006\275XA-\274!\266\237\275P\222\336\274.\3054=\006\000\216\275@rU<\205\030I\275!=D\275\031\255\212=n\372B=\036G7=p\247\231<\\M\263\274\220\317\300\273|Q\010\275\227{\033\275/K\230=\3306\223\275\216\214\214\275\242W\224\275\006\224\013=\200Q\014;\020\235\242<Od9\2750\177k\274\"\3253=\250\231\261\275\344\021\236\275Pt\214; \353\224<H\333\255\275\332\014\006=^\250\022=\021\010\202\275\311\376=\275\256\314k\275\254\323\221\274\302\025\271\275[+N\272\274\307\037=\215\037\224\275\341&\035=(\001\316<\217Yi=V\252\302\275\207\344#\275\225\305\310\274x\313\275\275x\2362\275\177\262X<K\010U\275\314\337*\274z\307\245\275\322\235\205=-\226s=\314\374c\274\303\362\323\275\363],\275\002\212\353=mY\033\274\327\317U=\326\362\365\275Tc\233\275\'\320$\2755\341\363\275\240\317\275\275\ti\n\276\376q$\275(\207\'<\364\240\364\275r\256\205\274\244o\343\274\212\314\r=\334\252\307\273[\374\001\274\"g\311\275U\nE\276\211\326C\275\220\323T>;P\r\276]\250\244=\301,\027\276\272\262\210\275\264Z\215\275\226\261-\276\321_\215\276\001\270\210\275Q\023\331\274\366L?>8n\335\275n\271\216\275\357\255\202\275\326T\311\274d\320G\275\004\026A\276\026\220\201\276\177s\301<\252\024\266\274x\270\025>\t\203^\276\304\3530=\253\\\003\275\215z\373;`\375\004\276n\014=\276\261/n\276\213\365E\275\214\004\244\274@ \373= \2375\276\253h\346\275\001\353M\275i\363\371\275\022\345\002=m\026\254\275\007U\200\276\253{\254<\336\314\213\275G\014\336=v{p\276\223\200\325<w@/\276\024\227\333\275\2775\345\275\347E\204\276\354\305\254\276\326\330\265\275\277\255\023\276\201\027\257>\323C\177\276<\211\244\276J\371\340\2757.\003\276J\306k\275\274\t\336\275\234)\306\276\377\236H\276=\031\331\2742\210\201>\314\316A\276\213(\274\275\236\215\336\275\304\316\n\276PP\271<t\350\347\275\232\026\200\276\025\215r\276\030K#\276\3721\'>\332\331\314\275>\232\026\276u\357\367\275\327@\351\274c\034\230\275\337\"\005\276cx\243\276\"\220h\276\031\215\253\275!8E>\304\256\n\276\214\245F\276\203.W\276\221S.\276\361\230\273\275\347oN\2762\370\244\276Ymb\276\321X\030\276\024Bu>\027\201<\276uh\247\276oA\030\276\003)5\276ah\006\276\237\022\224\276\240\320E\2763\265\203\276\236\245)\276K/\232>GiQ\276,\306_\2753\321\264\273T\"\342\275r\230h\275\315_H\276\216\361 \276X\260<\276\024\265\302\274f\270\225>\220<\343\275\213\301-\275\225\021\370\274\375#\251\275X\206\243\275R\205U\275\300+N\276d\216!\2769FC=\235\373\035\273\267\031\331\275\254s\377\2742\014\343\275IVc\272\353\365\247\275\265\352\313\275\361N\245\275\217\177\006\276\034w\230\275y\262\032>\221\244\025\276T\245R=\364F3\276\247\0074\275\234\241A\276^\222q\275\263\351\004\276\253\324\263\275\251\007.<p\331\272=\237A\304\275\0329\200\275\355/\361\275\'\013o=b\014\020\274bJ\316\274q?>\276\217\337\037\275\232\347\204;!\245(=cl \276\035A&\276\240\343\377\274\360\251\350;\211\203\253\275(\323\221\274\'n\241=\332q,\275t\225\207\274s^\003\275DL\332<\265E\017\275wM\251\275T\014\010=\300\216T\275\220?\265\274\020\354\274\274\3578\232=\337\337\204\275\365\306\236=\344_\026=\200\320;\273\250\346\341<\"\261@=\250\203\025=\230\013{\2742\302J=`\365\205<p)J<\264\204\345<\203\266\025\275\330\357\344\274\300>\013=/,\241=\221C\230=\315\002\206\275`&\375;e\3639\275\264\235\200\275\340\341V\274\030\302\023\274\001\370\254="
      }
    }
  }
}
node {
  name: "model/dense/MatMul/ReadVariableOp"
  op: "Identity"
  input: "model/dense/MatMul/ReadVariableOp/resource"
  attr {
    key: "T"
    value {
      type: DT_FLOAT
    }
  }
}
node {
  name: "model/dense/MatMul"
  op: "MatMul"
  input: "x"
  input: "model/dense/MatMul/ReadVariableOp"
  attr {
    key: "T"
    value {
      type: DT_FLOAT
    }
  }
  attr {
    key: "transpose_a"
    value {
      b: false
    }
  }
  attr {
    key: "transpose_b"
    value {
      b: false
    }
  }
}
node {
  name: "model/dense/BiasAdd/ReadVariableOp/resource"
  op: "Const"
  attr {
    key: "dtype"
    value {
      type: DT_FLOAT
    }
  }
  attr {
    key: "value"
    value {
      tensor {
        dtype: DT_FLOAT
        tensor_shape {
          dim {
            size: 10
          }
        }
        tensor_content: "\203=j\276\263c\300>\271\366 \274\023vI\276\327\005\356=O[\001?\355\314\202\275\0238\216>\261\330\"\277M\031\344\275"
      }
    }
  }
}
node {
  name: "model/dense/BiasAdd/ReadVariableOp"
  op: "Identity"
  input: "model/dense/BiasAdd/ReadVariableOp/resource"
  attr {
    key: "T"
    value {
      type: DT_FLOAT
    }
  }
}
node {
  name: "model/dense/BiasAdd"
  op: "BiasAdd"
  input: "model/dense/MatMul"
  input: "model/dense/BiasAdd/ReadVariableOp"
  attr {
    key: "T"
    value {
      type: DT_FLOAT
    }
  }
  attr {
    key: "data_format"
    value {
      s: "NHWC"
    }
  }
}
node {
  name: "model/softmax/Softmax"
  op: "Softmax"
  input: "model/dense/BiasAdd"
  attr {
    key: "T"
    value {
      type: DT_FLOAT
    }
  }
}
node {
  name: "Identity"
  op: "Identity"
  input: "model/softmax/Softmax"
  attr {
    key: "T"
    value {
      type: DT_FLOAT
    }
  }
}
versions {
  producer: 175
}
